{
  "version": "1.0",
  "truncation": null,
  "padding": null,
  "added_tokens": [
    {
      "id": 0,
      "content": "<unk>",
      "single_word": false,
      "lstrip": false,
      "rstrip": false,
      "normalized": false,
      "special": true
    },
    {
      "id": 1,
      "content": "<s>",
      "single_word": false,
      "lstrip": false,
      "rstrip": false,
      "normalized": false,
      "special": true
    },
    {
      "id": 2,
      "content": "</s>",
      "single_word": false,
      "lstrip": false,
      "rstrip": false,
      "normalized": false,
      "special": true
    },
    {
      "id": 3,
      "content": "<|im_start|>",
      "single_word": false,
      "lstrip": false,
      "rstrip": false,
      "normalized": false,
      "special": true
    },
    {
      "id": 4,
      "content": "<|im_end|>",
      "single_word": false,
      "lstrip": false,
      "rstrip": false,
      "normalized": false,
      "special": true
    }
  ],
  "normalizer": {
    "type": "NFKC"
  },
  "pre_tokenizer": {
    "type": "ByteLevel",
    "add_prefix_space": false,
    "trim_offsets": true,
    "use_regex": true
  },
  "post_processor": null,
  "decoder": {
    "type": "ByteLevel",
    "add_prefix_space": true,
    "trim_offsets": true,
    "use_regex": true
  },
  "model": {
    "type": "BPE",
    "dropout": null,
    "unk_token": "<unk>",
    "continuing_subword_prefix": null,
    "end_of_word_suffix": null,
    "fuse_unk": false,
    "byte_fallback": false,
    "ignore_merges": false,
    "vocab": {
      "<unk>": 0,
      "<s>": 1,
      "</s>": 2,
      "<|im_start|>": 3,
      "<|im_end|>": 4,
      "!": 5,
      "\"": 6,
      "#": 7,
      "$": 8,
      "%": 9,
      "&": 10,
      "'": 11,
      "(": 12,
      ")": 13,
      "*": 14,
      "+": 15,
      ",": 16,
      "-": 17,
      ".": 18,
      "/": 19,
      "0": 20,
      "1": 21,
      "2": 22,
      "3": 23,
      "4": 24,
      "5": 25,
      "6": 26,
      "7": 27,
      "8": 28,
      "9": 29,
      ":": 30,
      ";": 31,
      "<": 32,
      "=": 33,
      ">": 34,
      "?": 35,
      "@": 36,
      "A": 37,
      "B": 38,
      "C": 39,
      "D": 40,
      "E": 41,
      "F": 42,
      "G": 43,
      "H": 44,
      "I": 45,
      "J": 46,
      "K": 47,
      "L": 48,
      "M": 49,
      "N": 50,
      "O": 51,
      "P": 52,
      "Q": 53,
      "R": 54,
      "S": 55,
      "T": 56,
      "U": 57,
      "V": 58,
      "W": 59,
      "X": 60,
      "Y": 61,
      "Z": 62,
      "[": 63,
      "\\": 64,
      "]": 65,
      "^": 66,
      "_": 67,
      "`": 68,
      "a": 69,
      "b": 70,
      "c": 71,
      "d": 72,
      "e": 73,
      "f": 74,
      "g": 75,
      "h": 76,
      "i": 77,
      "j": 78,
      "k": 79,
      "l": 80,
      "m": 81,
      "n": 82,
      "o": 83,
      "p": 84,
      "q": 85,
      "r": 86,
      "s": 87,
      "t": 88,
      "u": 89,
      "v": 90,
      "w": 91,
      "x": 92,
      "y": 93,
      "z": 94,
      "{": 95,
      "|": 96,
      "}": 97,
      "~": 98,
      "¡": 99,
      "¢": 100,
      "£": 101,
      "¤": 102,
      "¥": 103,
      "¦": 104,
      "§": 105,
      "¨": 106,
      "©": 107,
      "ª": 108,
      "«": 109,
      "¬": 110,
      "®": 111,
      "¯": 112,
      "°": 113,
      "±": 114,
      "²": 115,
      "³": 116,
      "´": 117,
      "µ": 118,
      "¶": 119,
      "·": 120,
      "¸": 121,
      "¹": 122,
      "º": 123,
      "»": 124,
      "¼": 125,
      "½": 126,
      "¾": 127,
      "¿": 128,
      "À": 129,
      "Á": 130,
      "Â": 131,
      "Ã": 132,
      "Ä": 133,
      "Å": 134,
      "Æ": 135,
      "Ç": 136,
      "È": 137,
      "É": 138,
      "Ê": 139,
      "Ë": 140,
      "Ì": 141,
      "Í": 142,
      "Î": 143,
      "Ï": 144,
      "Ð": 145,
      "Ñ": 146,
      "Ò": 147,
      "Ó": 148,
      "Ô": 149,
      "Õ": 150,
      "Ö": 151,
      "×": 152,
      "Ø": 153,
      "Ù": 154,
      "Ú": 155,
      "Û": 156,
      "Ü": 157,
      "Ý": 158,
      "Þ": 159,
      "ß": 160,
      "à": 161,
      "á": 162,
      "â": 163,
      "ã": 164,
      "ä": 165,
      "å": 166,
      "æ": 167,
      "ç": 168,
      "è": 169,
      "é": 170,
      "ê": 171,
      "ë": 172,
      "ì": 173,
      "í": 174,
      "î": 175,
      "ï": 176,
      "ð": 177,
      "ñ": 178,
      "ò": 179,
      "ó": 180,
      "ô": 181,
      "õ": 182,
      "ö": 183,
      "÷": 184,
      "ø": 185,
      "ù": 186,
      "ú": 187,
      "û": 188,
      "ü": 189,
      "ý": 190,
      "þ": 191,
      "ÿ": 192,
      "Ā": 193,
      "ā": 194,
      "Ă": 195,
      "ă": 196,
      "Ą": 197,
      "ą": 198,
      "Ć": 199,
      "ć": 200,
      "Ĉ": 201,
      "ĉ": 202,
      "Ċ": 203,
      "ċ": 204,
      "Č": 205,
      "č": 206,
      "Ď": 207,
      "ď": 208,
      "Đ": 209,
      "đ": 210,
      "Ē": 211,
      "ē": 212,
      "Ĕ": 213,
      "ĕ": 214,
      "Ė": 215,
      "ė": 216,
      "Ę": 217,
      "ę": 218,
      "Ě": 219,
      "ě": 220,
      "Ĝ": 221,
      "ĝ": 222,
      "Ğ": 223,
      "ğ": 224,
      "Ġ": 225,
      "ġ": 226,
      "Ģ": 227,
      "ģ": 228,
      "Ĥ": 229,
      "ĥ": 230,
      "Ħ": 231,
      "ħ": 232,
      "Ĩ": 233,
      "ĩ": 234,
      "Ī": 235,
      "ī": 236,
      "Ĭ": 237,
      "ĭ": 238,
      "Į": 239,
      "į": 240,
      "İ": 241,
      "ı": 242,
      "Ĳ": 243,
      "ĳ": 244,
      "Ĵ": 245,
      "ĵ": 246,
      "Ķ": 247,
      "ķ": 248,
      "ĸ": 249,
      "Ĺ": 250,
      "ĺ": 251,
      "Ļ": 252,
      "ļ": 253,
      "Ľ": 254,
      "ľ": 255,
      "Ŀ": 256,
      "ŀ": 257,
      "Ł": 258,
      "ł": 259,
      "Ń": 260,
      "ä¸": 261,
      "ãĢ": 262,
      "çļ": 263,
      "çļĦ": 264,
      "äº": 265,
      "ãĢģ": 266,
      "æľ": 267,
      "ãĢĤ": 268,
      "åħ": 269,
      "å¤": 270,
      "ä»": 271,
      "åı": 272,
      "åŃ": 273,
      "åĪ": 274,
      "å®": 275,
      "è¿": 276,
      "çĶ": 277,
      "ä½": 278,
      "æĺ": 279,
      "åĽ": 280,
      "åľ": 281,
      "ç»": 282,
      "ä¼": 283,
      "æĪ": 284,
      "åĬ": 285,
      "åĲ": 286,
      "åŃ¦": 287,
      "ä¸Ģ": 288,
      "è®": 289,
      "æĸ": 290,
      "ä¹": 291,
      "åį": 292,
      "æĺ¯": 293,
      "æľī": 294,
      "åº": 295,
      "ä¸ļ": 296,
      "æķ": 297,
      "ä¸į": 298,
      "åĮ": 299,
      "å·": 300,
      "ä¸Ń": 301,
      "äºº": 302,
      "å¸": 303,
      "å¹": 304,
      "åľ¨": 305,
      "çī": 306,
      "æĬ": 307,
      "çĶŁ": 308,
      "åĴ": 309,
      "æĢ": 310,
      "æī": 311,
      "æĹ": 312,
      "åĴĮ": 313,
      "è¯": 314,
      "éĢ": 315,
      "å¤§": 316,
      "ç§": 317,
      "å°": 318,
      "çĲ": 319,
      "å¿": 320,
      "ĥ½": 321,
      "æł": 322,
      "âĢ": 323,
      "å¾": 324,
      "åĽ½": 325,
      "å±": 326,
      "æĿ": 327,
      "äºĨ": 328,
      "å¼": 329,
      "ç¨": 330,
      "è§": 331,
      "è¦": 332,
      "æ°": 333,
      "çĲĨ": 334,
      "çİ": 335,
      "éĩ": 336,
      "è¦ģ": 337,
      "ä¸º": 338,
      "è¡": 339,
      "çŃ": 340,
      "èµ": 341,
      "å¥": 342,
      "èĥ½": 343,
      "èĢ": 344,
      "å¯": 345,
      "åĨ": 346,
      "åĮĸ": 347,
      "ä¸ª": 348,
      "ä»¥": 349,
      "åıĳ": 350,
      "èĩ": 351,
      "è´": 352,
      "å·¥": 353,
      "ä¼ļ": 354,
      "éĿ": 355,
      "æİ": 356,
      "å®¶": 357,
      "åİ": 358,
      "çº": 359,
      "åĩ": 360,
      "éĹ": 361,
      "åĵ": 362,
      "é¢": 363,
      "çĶ¨": 364,
      "å½": 365,
      "ä¿": 366,
      "çī©": 367,
      "æ³": 368,
      "çĽ": 369,
      "å¤ļ": 370,
      "çŃī": 371,
      "éĻ": 372,
      "åĪ°": 373,
      "åŁ": 374,
      "å¿ĥ": 375,
      "ä¸Ĭ": 376,
      "æĥ": 377,
      "è¿Ľ": 378,
      "å±ķ": 379,
      "æĪĳ": 380,
      "æĶ": 381,
      "æĪĲ": 382,
      "å¹´": 383,
      "çİ°": 384,
      "ä½ĵ": 385,
      "åı¯": 386,
      "æ²": 387,
      "å®ŀ": 388,
      "æµ": 389,
      "èĩª": 390,
      "æľ¯": 391,
      "è®¾": 392,
      "æĿ¥": 393,
      "çľ": 394,
      "é«": 395,
      "ä¸İ": 396,
      "åĪĨ": 397,
      "æĢ§": 398,
      "è¡Į": 399,
      "æ¯": 400,
      "æŃ": 401,
      "è¿Ļ": 402,
      "é«ĺ": 403,
      "ä¼ģ": 404,
      "ä½ľ": 405,
      "æĮ": 406,
      "åŃĲ": 407,
      "ä¼ģä¸ļ": 408,
      "èī": 409,
      "æĬĢ": 410,
      "ç§ĳ": 411,
      "âĢľ": 412,
      "âĢĿ": 413,
      "åģ": 414,
      "ç»ı": 415,
      "é¡": 416,
      "è¿ĩ": 417,
      "ç¨İ": 418,
      "ä»¬": 419,
      "æķ°": 420,
      "é¦": 421,
      "äº§": 422,
      "åĵģ": 423,
      "æģ": 424,
      "æĹ¶": 425,
      "å¯¹": 426,
      "æ±": 427,
      "äºİ": 428,
      "æĸ¹": 429,
      "æķĻ": 430,
      "å¥½": 431,
      "å»": 432,
      "ç®": 433,
      "èĤ": 434,
      "ä»ĸ": 435,
      "å»º": 436,
      "åĬĽ": 437,
      "éĿ¢": 438,
      "è¾": 439,
      "èĮ": 440,
      "éģ": 441,
      "åºĶ": 442,
      "å¸Ī": 443,
      "åıĳå±ķ": 444,
      "èĮĥ": 445,
      "åĳ": 446,
      "æĦ": 447,
      "æŀ": 448,
      "çĤ": 449,
      "ä¹Ł": 450,
      "ä¸ŃåĽ½": 451,
      "æľº": 452,
      "åĢ": 453,
      "æĬĢæľ¯": 454,
      "æ¬": 455,
      "ä¸ĵ": 456,
      "åħ¨": 457,
      "åĪ¶": 458,
      "çī¹": 459,
      "ä¿¡": 460,
      "å¦": 461,
      "ç¨ĭ": 462,
      "çĥ": 463,
      "åĲĪ": 464,
      "ç¤": 465,
      "éĥ": 466,
      "è®¡": 467,
      "æĭ": 468,
      "æĽ": 469,
      "ç½": 470,
      "è½": 471,
      "æĸĩ": 472,
      "å¼Ģ": 473,
      "ç¬": 474,
      "éķ": 475,
      "èģ": 476,
      "ç¥": 477,
      "æľ¬": 478,
      "åĽł": 479,
      "åįļ": 480,
      "é¦Ĩ": 481,
      "æł¡": 482,
      "åĩº": 483,
      "éĥ¨": 484,
      "é¡¹": 485,
      "åī": 486,
      "ä¸»": 487,
      "èĤ²": 488,
      "ä¾": 489,
      "å¢": 490,
      "ç©": 491,
      "åħ¬": 492,
      "åĬ¨": 493,
      "æĪ¿": 494,
      "éķ¿": 495,
      "ç«": 496,
      "å®ļ": 497,
      "åŃ¦çĶŁ": 498,
      "æı": 499,
      "è¶": 500,
      "åľ°": 501,
      "åĲĮ": 502,
      "å¾Ĺ": 503,
      "ç»Ł": 504,
      "å¤§åŃ¦": 505,
      "å°±": 506,
      "æĪĳä»¬": 507,
      "¥åº": 508,
      "æ´": 509,
      "æ¸": 510,
      "æį": 511,
      "åħ¶": 512,
      "åķ": 513,
      "æĻ": 514,
      "åĬł": 515,
      "å¸Ĥ": 516,
      "ä¸ľ": 517,
      "åľº": 518,
      "å¸ĪèĮĥ": 519,
      "æĹł": 520,
      "æģ¯": 521,
      "çķ": 522,
      "æĽ´": 523,
      "æ¶": 524,
      "ç¾": 525,
      "èµĦ": 526,
      "èĢĮ": 527,
      "çĶµ": 528,
      "éĢł": 529,
      "ç¡": 530,
      "çŁ": 531,
      "åħ·": 532,
      "æīĢ": 533,
      "æ°´": 534,
      "çī©é¦Ĩ": 535,
      "åįļçī©é¦Ĩ": 536,
      "æıĲ": 537,
      "ç±": 538,
      "èĻ": 539,
      "ä»İ": 540,
      "åıĬ": 541,
      "åĬ¡": 542,
      "æ°Ķ": 543,
      "è´¨": 544,
      "æ³ķ": 545,
      "ç®¡": 546,
      "çĿ": 547,
      "æĸ°": 548,
      "æľŁ": 549,
      "åħ³": 550,
      "çĤ¹": 551,
      "ä¿¡æģ¯": 552,
      "ç¬¬": 553,
      "ç³": 554,
      "ä½¿": 555,
      "åĨħ": 556,
      "çĽ¸": 557,
      "ä¸ĵä¸ļ": 558,
      "åķĨ": 559,
      "éļ": 560,
      "ä¸ĭ": 561,
      "åĲİ": 562,
      "åº¦": 563,
      "ç§į": 564,
      "éĩį": 565,
      "æ¯Ķ": 566,
      "æĦı": 567,
      "å¦Ĥ": 568,
      "åŁº": 569,
      "çĥŃ": 570,
      "ç³»": 571,
      "äºĽ": 572,
      "è¿Ĳ": 573,
      "è¿ĺ": 574,
      "ä¹ĭ": 575,
      "å¹³": 576,
      "æīį": 577,
      "åĽ½å®¶": 578,
      "èĢħ": 579,
      "æĥħ": 580,
      "å»ºè®¾": 581,
      "è¡¨": 582,
      "å½ĵ": 583,
      "åģ¥åº": 584,
      "çĿĢ": 585,
      "åģ¥åº·": 586,
      "åĿ": 587,
      "åħ¥": 588,
      "ä»£": 589,
      "å¾Ī": 590,
      "é¢Ŀ": 591,
      "ç¾İ": 592,
      "ç®¡çĲĨ": 593,
      "è°": 594,
      "éĺ": 595,
      "éĥ½": 596,
      "äºĭ": 597,
      "ä½į": 598,
      "æµģ": 599,
      "ç±»": 600,
      "èĪ": 601,
      "éĶ": 602,
      "æĺİ": 603,
      "åŃ¦ç§ĳ": 604,
      "èī²": 605,
      "æķĻèĤ²": 606,
      "æ´»": 607,
      "çĦ": 608,
      "éľ": 609,
      "ä¸ī": 610,
      "å¤ĩ": 611,
      "éĹ¨": 612,
      "æĥ³": 613,
      "çľģ": 614,
      "éģĵ": 615,
      "éª": 616,
      "å¤Ħ": 617,
      "å°Ĩ": 618,
      "éĹ´": 619,
      "æ²¡": 620,
      "éľĢ": 621,
      "æŁ": 622,
      "ç´": 623,
      "æłĩ": 624,
      "æ±Ĥ": 625,
      "ç¥¨": 626,
      "å¸ĪèĮĥå¤§åŃ¦": 627,
      "å¤©": 628,
      "æ¬¡": 629,
      "ç©º": 630,
      "åħ±": 631,
      "æ°ĳ": 632,
      "æİ§": 633,
      "å¿ĥçĲĨ": 634,
      "æ²¡æľī": 635,
      "è£": 636,
      "éĩı": 637,
      "çĽ®": 638,
      "æľĢ": 639,
      "ä½Ĩ": 640,
      "å°ı": 641,
      "æł·": 642,
      "å·¥ä½ľ": 643,
      "åİ»": 644,
      "ç¤¾": 645,
      "00": 646,
      "å·±": 647,
      "å¼º": 648,
      "èĩªå·±": 649,
      "ç¨İé¢Ŀ": 650,
      "ç½ĳ": 651,
      "ç¦": 652,
      "çĪ": 653,
      "èĲ": 654,
      "åŃ©": 655,
      "æĢģ": 656,
      "è§£": 657,
      "è§Ħ": 658,
      "çº§": 659,
      "æŀľ": 660,
      "çŁ¥": 661,
      "ç¤¾ä¼ļ": 662,
      "æº": 663,
      "èĬ": 664,
      "åıª": 665,
      "åĪ©": 666,
      "åĪ«": 667,
      "ä¸Ģä¸ª": 668,
      "èµĽ": 669,
      "åı¯ä»¥": 670,
      "å¢ŀ": 671,
      "çĦ¶": 672,
      "åŀ": 673,
      "åħ»": 674,
      "æķĪ": 675,
      "çĲĥ": 676,
      "è§Ĥ": 677,
      "æİĴ": 678,
      "ç«ĭ": 679,
      "æį®": 680,
      "çł": 681,
      "è·": 682,
      "ãĢĬ": 683,
      "ãĢĭ": 684,
      "åĲį": 685,
      "è¯´": 686,
      "å¯¼": 687,
      "åŁ¹": 688,
      "æŃ£": 689,
      "åĢ¼": 690,
      "è½¬": 691,
      "åīį": 692,
      "ä¿¡æģ¯åĮĸ": 693,
      "éªĮ": 694,
      "æľį": 695,
      "ç»ĵ": 696,
      "å·²": 697,
      "å¹¶": 698,
      "æĬķ": 699,
      "è¯Ĩ": 700,
      "è§ģ": 701,
      "ç¤º": 702,
      "æĻº": 703,
      "ç²": 704,
      "ç¼": 705,
      "éĴ": 706,
      "ä»·": 707,
      "æĪĸ": 708,
      "åĮħ": 709,
      "çľĭ": 710,
      "æŃ¤": 711,
      "åŀĭ": 712,
      "å£": 713,
      "èĭ": 714,
      "åĲĳ": 715,
      "åį°": 716,
      "åįĹ": 717,
      "æĬµ": 718,
      "æĹ¥": 719,
      "éĢļ": 720,
      "å·¥ç¨ĭ": 721,
      "æ¶Ī": 722,
      "åħ·æľī": 723,
      "20": 724,
      "ä½İ": 725,
      "æīĵ": 726,
      "åİĤ": 727,
      "è¿Ľè¡Į": 728,
      "æĮĩ": 729,
      "æ¡": 730,
      "æ¢": 731,
      "æ¨": 732,
      "èĥ": 733,
      "ħ§": 734,
      "äºĮ": 735,
      "å¤ĸ": 736,
      "å®¤": 737,
      "æķ´": 738,
      "æĶ¿": 739,
      "è®¾å¤ĩ": 740,
      "èģĶ": 741,
      "èĬĤ": 742,
      "è¥": 743,
      "èº": 744,
      "åıĹ": 745,
      "åĽĽ": 746,
      "è®©": 747,
      "ä¹ł": 748,
      "é¢ĺ": 749,
      "ç¦»": 750,
      "èĲ¥": 751,
      "åŁ¹åħ»": 752,
      "éĽ": 753,
      "äººæīį": 754,
      "ç§Ł": 755,
      "æĶ¾": 756,
      "å®ŀéªĮ": 757,
      "æĸ¹éĿ¢": 758,
      "è¥¿": 759,
      "åĸ": 760,
      "ä¸¤": 761,
      "å¤±": 762,
      "ä»»": 763,
      "å®ī": 764,
      "ä¼Ĺ": 765,
      "åŃ¦æł¡": 766,
      "æĸĻ": 767,
      "åįģ": 768,
      "åºŁ": 769,
      "åĮĹ": 770,
      "æĢĿ": 771,
      "éĩĮ": 772,
      "åİŁ": 773,
      "æµİ": 774,
      "æĮģ": 775,
      "éľĢè¦ģ": 776,
      "è£ħ": 777,
      "æ¹": 778,
      "èĹ": 779,
      "åŃĹ": 780,
      "åĪĽ": 781,
      "åĲĦ": 782,
      "è®¤": 783,
      "å¸¸": 784,
      "çĶŁäº§": 785,
      "åĨ³": 786,
      "è¿Ľé¡¹": 787,
      "ç»ıæµİ": 788,
      "åĳĺ": 789,
      "èĻŁ": 790,
      "åŃ©åŃĲ": 791,
      "çłĶ": 792,
      "ç²¾": 793,
      "èº«": 794,
      "çĻ": 795,
      "äºĶ": 796,
      "åħĭ": 797,
      "åı¸": 798,
      "åıĺ": 799,
      "åĪĴ": 800,
      "å¸¦": 801,
      "æł¼": 802,
      "çİ¯": 803,
      "çŃĸ": 804,
      "çº¸": 805,
      "éĹ®": 806,
      "éĻ¢": 807,
      "åģļ": 808,
      "äº§åĵģ": 809,
      "ç®Ĺ": 810,
      "åĪ¶éĢł": 811,
      "éĥ¨åĪĨ": 812,
      "æĪ¿ä¸ľ": 813,
      "ç³»ç»Ł": 814,
      "æ£": 815,
      "æ·": 816,
      "éĤ": 817,
      "äº¬": 818,
      "åħļ": 819,
      "å¤´": 820,
      "è®°": 821,
      "æĸ¯": 822,
      "ä¹¦": 823,
      "åĮº": 824,
      "è¯Ħ": 825,
      "éĢĤ": 826,
      "å¿«": 827,
      "å¿µ": 828,
      "å¼ı": 829,
      "éĩĳ": 830,
      "è¦ģæ±Ĥ": 831,
      "èµ·": 832,
      "æĶ¶": 833,
      "åı¯èĥ½": 834,
      "å®ŀçİ°": 835,
      "æķ°æį®": 836,
      "æ¬¾": 837,
      "ç¥ŀ": 838,
      "åºŁæ°Ķ": 839,
      "çĸ": 840,
      "è¢": 841,
      "ä»¶": 842,
      "åĬ©": 843,
      "åį³": 844,
      "åįĩ": 845,
      "éĢģ": 846,
      "æİ¨": 847,
      "èī¯": 848,
      "èīº": 849,
      "èģĮ": 850,
      "å¸Ĥåľº": 851,
      "ç¡Ģ": 852,
      "åŁºç¡Ģ": 853,
      "å£«": 854,
      "èĹı": 855,
      "è¨": 856,
      "é£": 857,
      "é»": 858,
      "è¿ĳ": 859,
      "ç»Ļ": 860,
      "ä¹Ī": 861,
      "æĬĬ": 862,
      "å±ŀ": 863,
      "çº³": 864,
      "å½±": 865,
      "ä¿Ŀ": 866,
      "éĻ¤": 867,
      "ç¨İæ¬¾": 868,
      "è¾¾": 869,
      "åĽłä¸º": 870,
      "å¢ĥ": 871,
      "çķĻ": 872,
      "éĶĢ": 873,
      "å¤ĦçĲĨ": 874,
      "æºĲ": 875,
      "å®ŀéªĮå®¤": 876,
      "11": 877,
      "å§": 878,
      "èį": 879,
      "ä¸ĸ": 880,
      "å®¹": 881,
      "ç»ľ": 882,
      "è®º": 883,
      "å½¢": 884,
      "çľŁ": 885,
      "æķĻåŃ¦": 886,
      "è¾ĥ": 887,
      "åīĤ": 888,
      "èĪ¬": 889,
      "èĩªå·±çļĦ": 890,
      "ç½ĳç»ľ": 891,
      "æľįåĬ¡": 892,
      "éĽĨ": 893,
      "æ¹ĸ": 894,
      "è¢«": 895,
      "è¨Ģ": 896,
      "éħ": 897,
      "ä¸ĩ": 898,
      "äº¤": 899,
      "åħĥ": 900,
      "æĺĵ": 901,
      "ä¼ł": 902,
      "å¸ĥ": 903,
      "çĶŁæ´»": 904,
      "è¯¥": 905,
      "éĩĩ": 906,
      "ä»¥åıĬ": 907,
      "éĿŀ": 908,
      "åĵį": 909,
      "é¢Ĩ": 910,
      "æ²»": 911,
      "æ¯ı": 912,
      "ç©¶": 913,
      "ç»Łè®¡": 914,
      "æ¸¸": 915,
      "éĹ®é¢ĺ": 916,
      "æ£Ģ": 917,
      "é©": 918,
      "éĵ": 919,
      "æľª": 920,
      "ä½ł": 921,
      "æĺ¥": 922,
      "åĽŀ": 923,
      "ç»´": 924,
      "ä¼ĺ": 925,
      "ä¹ī": 926,
      "ä¸ŃçļĦ": 927,
      "çĶŁæĢģ": 928,
      "æĢ»": 929,
      "å¾·": 930,
      "å±Ĥ": 931,
      "æĿĲ": 932,
      "èĥ½åĬĽ": 933,
      "éĿĴ": 934,
      "æ³¢": 935,
      "è®¾è®¡": 936,
      "è¿Ļæł·": 937,
      "æ±Ł": 938,
      "è®¡ç®Ĺ": 939,
      "ä¸»è¦ģ": 940,
      "åĶ": 941,
      "æ®": 942,
      "çĬ": 943,
      "åħĪ": 944,
      "åıį": 945,
      "ä½ķ": 946,
      "ç»Ħ": 947,
      "æĸŃ": 948,
      "ä¸įåĲĮ": 949,
      "å¹¿": 950,
      "è§ī": 951,
      "èĩ³": 952,
      "æİ¥": 953,
      "è¿Ļä¸ª": 954,
      "âĢĿ,": 955,
      "è¿ĩç¨ĭ": 956,
      "ä»ĸä»¬": 957,
      "åºĶçĶ¨": 958,
      "ä¾Ľ": 959,
      "åħ¬åı¸": 960,
      "è¶Ĭ": 961,
      "ç´ł": 962,
      "èĹıåĵģ": 963,
      "èĦ": 964,
      "æĺ¾": 965,
      "ç»Ń": 966,
      "åŃ¦ä¹ł": 967,
      "åįķ": 968,
      "æĬ¤": 969,
      "æīĭ": 970,
      "å°ĳ": 971,
      "çİĩ": 972,
      "åĨµ": 973,
      "åĨį": 974,
      "é¢Ħ": 975,
      "æ³¨": 976,
      "æķ°åŃĹ": 977,
      "å¥½çļĦ": 978,
      "åĳĬ": 979,
      "åħ¨åĽ½": 980,
      "æįŁ": 981,
      "æīĢä»¥": 982,
      "çłĶç©¶": 983,
      "ç²¾ç¥ŀ": 984,
      "èģĮä¸ļ": 985,
      "Â·": 986,
      "åĦ": 987,
      "çģ": 988,
      "å¤Ł": 989,
      "ä¸ĢäºĽ": 990,
      "åįİ": 991,
      "å¿ħ": 992,
      "å¼ķ": 993,
      "èĢĥ": 994,
      "æķ°æİ§": 995,
      "è¾ĵ": 996,
      "åĢĭ": 997,
      "æĸĩåĮĸ": 998,
      "é¡¹çĽ®": 999,
      "æ¸©": 1000,
      "å¦Ĥæŀľ": 1001,
      "æ¡Ī": 1002,
      "çİ¯å¢ĥ": 1003,
      "èīºæľ¯": 1004,
      "å½±åĵį": 1005,
      "é©¬": 1006,
      "æįŁå¤±": 1007,
      "åĦ¿": 1008,
      "åĥ": 1009,
      "æĤ": 1010,
      "æħ§": 1011,
      "æľĪ": 1012,
      "å®¢": 1013,
      "å®ĥ": 1014,
      "æĪĺ": 1015,
      "éĢī": 1016,
      "ç§¯": 1017,
      "èµ°": 1018,
      "èĥ½å¤Ł": 1019,
      "èĢģ": 1020,
      "åŁİ": 1021,
      "åŁŁ": 1022,
      "è¡Įä¸ļ": 1023,
      "äº§ä¸ļ": 1024,
      "åıĳå±ķçļĦ": 1025,
      "æĦŁ": 1026,
      "ç¬¦": 1027,
      "çĶµåŃĲ": 1028,
      "æ°´å¹³": 1029,
      "éļ¾": 1030,
      "éļı": 1031,
      "æŁ¥": 1032,
      "ä½Ĩæĺ¯": 1033,
      "åĪ©çĶ¨": 1034,
      "æĻºæħ§": 1035,
      "éĢļè¿ĩ": 1036,
      "æĢĿæĥ³": 1037,
      "è¿Ľé¡¹çķĻ": 1038,
      "æ·±": 1039,
      "æĺ¥èĬĤ": 1040,
      "åĶ®": 1041,
      "çĬ¶": 1042,
      "è¿Ľé¡¹çķĻæĬµ": 1043,
      "æĵ": 1044,
      "èª": 1045,
      "èĵ": 1046,
      "é¥": 1047,
      "äº²": 1048,
      "åı°": 1049,
      "åĽ¢": 1050,
      "åĽ´": 1051,
      "åĬ¿": 1052,
      "ä¸įè¦ģ": 1053,
      "æĬ¥": 1054,
      "å¥³": 1055,
      "åĩł": 1056,
      "çī©æµģ": 1057,
      "éĻħ": 1058,
      "æĶ¹": 1059,
      "çİ°åľ¨": 1060,
      "æ¯ķ": 1061,
      "æŃ¥": 1062,
      "å¯¹äºİ": 1063,
      "çī¹çĤ¹": 1064,
      "çī¹èī²": 1065,
      "ä¾Ŀ": 1066,
      "æĪ¿ç§Ł": 1067,
      "çķĮ": 1068,
      "èµĦæºĲ": 1069,
      "åĿĩ": 1070,
      "çĪ±": 1071,
      "çŁ¥è¯Ĩ": 1072,
      "æ¨¡": 1073,
      "ç¨İæ¬¾æįŁå¤±": 1074,
      "èį¯": 1075,
      "ĺåľ¨": 1076,
      "ä¸½": 1077,
      "äºī": 1078,
      "åı¥": 1079,
      "åıĤ": 1080,
      "åĽŃ": 1081,
      "ä¸įä¼ļ": 1082,
      "æī¿": 1083,
      "æ°§": 1084,
      "å¥¥": 1085,
      "è´§": 1086,
      "åİĨ": 1087,
      "æĪĲä¸º": 1088,
      "èĩªçĦ¶": 1089,
      "ä¼ģä¸ļçļĦ": 1090,
      "é¦ĸ": 1091,
      "åħ¨éĿ¢": 1092,
      "è½®": 1093,
      "åĽłæŃ¤": 1094,
      "è¶³": 1095,
      "å°±æĺ¯": 1096,
      "åĬłå·¥": 1097,
      "ç¡®": 1098,
      "æıĲé«ĺ": 1099,
      "ä½¿çĶ¨": 1100,
      "æ¯ĶèµĽ": 1101,
      "åĿļ": 1102,
      "çĪ¶": 1103,
      "å·²ç»ı": 1104,
      "èĭ¦": 1105,
      "æ¢¦": 1106,
      "éĤ£": 1107,
      "é£İ": 1108,
      "åĥı": 1109,
      "è¿Ľé¡¹çķĻæĬµç¨İé¢Ŀ": 1110,
      "æ»": 1111,
      "æ¿": 1112,
      "çª": 1113,
      "è©": 1114,
      "ä»Ģ": 1115,
      "å®Į": 1116,
      "ä¸Ģå®ļ": 1117,
      "ä¹Ĳ": 1118,
      "åºĹ": 1119,
      "å·®": 1120,
      "çĶŁæĦı": 1121,
      "èĩŃ": 1122,
      "è´¹": 1123,
      "è´Ń": 1124,
      "çİ°ä»£": 1125,
      "è¿Ļç§į": 1126,
      "ç»ıèĲ¥": 1127,
      "äº§çĶŁ": 1128,
      "æģ¶": 1129,
      "åºĶè¯¥": 1130,
      "åĳ½": 1131,
      "æľºæ¢": 1132,
      "çī¹åĪ«": 1133,
      "å¦Ī": 1134,
      "ç½Ĺ": 1135,
      "æĸĩæĺİ": 1136,
      "å¼Ģåıĳ": 1137,
      "ä¸»ä¹ī": 1138,
      "è´¨éĩı": 1139,
      "ç¬¬ä¸Ģ": 1140,
      "ç¾İä¸½": 1141,
      "éĺ²": 1142,
      "éĺŁ": 1143,
      "å¢ŀåĢ¼": 1144,
      "ä¸¤ä¸ª": 1145,
      "å½¢æĪĲ": 1146,
      "è®¡ç®Ĺæľº": 1147,
      "æĵį": 1148,
      "æľºæ¢°": 1149,
      "åª": 1150,
      "çĹ": 1151,
      "çħ§": 1152,
      "èĳ": 1153,
      "éĨ": 1154,
      "äº«": 1155,
      "åħ´": 1156,
      "åħ¥åº": 1157,
      "åıĪ": 1158,
      "åıĸ": 1159,
      "åŃĺåľ¨": 1160,
      "åĪĿ": 1161,
      "ä¼°": 1162,
      "ä¸Ģç§į": 1163,
      "ä¸ĢèĪ¬": 1164,
      "ä¸ĢåĢĭ": 1165,
      "ä¸įæĺ¯": 1166,
      "ä¸įèĥ½": 1167,
      "æī¾": 1168,
      "è¯Ń": 1169,
      "éĢĻ": 1170,
      "å¤§çļĦ": 1171,
      "å°Ķ": 1172,
      "æĿ¡": 1173,
      "æĿ¿": 1174,
      "å¥¹": 1175,
      "åĩĨ": 1176,
      "æ³¡": 1177,
      "éĻĦ": 1178,
      "ä¸ĬçļĦ": 1179,
      "æĭ¬": 1180,
      "æĭĽ": 1181,
      "è¶ħ": 1182,
      "æĽ´å¤ļ": 1183,
      "æıĲåįĩ": 1184,
      "ä»İäºĭ": 1185,
      "æĥħåĨµ": 1186,
      "è°ĥ": 1187,
      "æŁĵ": 1188,
      "æİ§åĪ¶": 1189,
      "è½¬åį°": 1190,
      "åĪĽæĸ°": 1191,
      "æİ¨åĬ¨": 1192,
      "é»ŀ": 1193,
      "æ¹ĸåįĹ": 1194,
      "æ¯ķä¸ļ": 1195,
      "æ¿Ģ": 1196,
      "ä»Ģä¹Ī": 1197,
      "å¢ŀåĢ¼ç¨İ": 1198,
      "åħ¥åºĵ": 1199,
      "19": 1200,
      "211": 1201,
      "å²": 1202,
      "æħ": 1203,
      "çĭ": 1204,
      "è±": 1205,
      "èİ": 1206,
      "éī": 1207,
      "éł": 1208,
      "ä»Ĭ": 1209,
      "åı²": 1210,
      "å®Ŀ": 1211,
      "ç»¿": 1212,
      "ç»ĩ": 1213,
      "åĬŀ": 1214,
      "åĲ¸": 1215,
      "è®²": 1216,
      "ä¸Ńå¿ĥ": 1217,
      "äººçļĦ": 1218,
      "å¹²": 1219,
      "æī£": 1220,
      "æĹ©": 1221,
      "è¯Ŀ": 1222,
      "éĢĢ": 1223,
      "å¿Ĺ": 1224,
      "æł¸": 1225,
      "å¾ģ": 1226,
      "å±±": 1227,
      "å¼ł": 1228,
      "çĲĨè®º": 1229,
      "èĩ´": 1230,
      "å·¥åķĨ": 1231,
      "æĶ¯": 1232,
      "æµ·": 1233,
      "èĩªåĬ¨": 1234,
      "ä½ľä¸º": 1235,
      "æĮī": 1236,
      "æŀģ": 1237,
      "æŀĦ": 1238,
      "è¿Ĳè¡Į": 1239,
      "è¿ĺæĺ¯": 1240,
      "å¾Īå¤ļ": 1241,
      "æ´»åĬ¨": 1242,
      "çĽ®æłĩ": 1243,
      "æİĴæĶ¾": 1244,
      "éĴ±": 1245,
      "åĮħæĭ¬": 1246,
      "æĬµæī£": 1247,
      "å®īåħ¨": 1248,
      "è¯Ħä¼°": 1249,
      "éĢĤåºĶ": 1250,
      "å§ĭ": 1251,
      "ä¸ĸçķĮ": 1252,
      "æ®µ": 1253,
      "åŁİå¸Ĥ": 1254,
      "éī´": 1255,
      "18": 1256,
      "å¨": 1257,
      "çı": 1258,
      "èŀ": 1259,
      "Ļé»ŀ": 1260,
      "çļ®": 1261,
      "çļĦäºº": 1262,
      "çļĦé«ĺ": 1263,
      "çļĦåŃ¦çĶŁ": 1264,
      "æľĽ": 1265,
      "åħħ": 1266,
      "åı£": 1267,
      "åĪĩ": 1268,
      "ä¼ĳ": 1269,
      "æĸ½": 1270,
      "ä¸ļåĬ¡": 1271,
      "æķħ": 1272,
      "äººæ°ĳ": 1273,
      "å¸®": 1274,
      "çĶŁçī©": 1275,
      "è¯·": 1276,
      "éĢŁ": 1277,
      "å°½": 1278,
      "äºĨä¸Ģ": 1279,
      "èĢĲ": 1280,
      "åĨľ": 1281,
      "åıĳç¥¨": 1282,
      "çº¿": 1283,
      "æĿ¥çļĦ": 1284,
      "ä¼ģä¸ļä¿¡æģ¯åĮĸ": 1285,
      "é¡»": 1286,
      "æĹ¶ä»£": 1287,
      "éģĩ": 1288,
      "æŀĲ": 1289,
      "åħ¬ä¼Ĺ": 1290,
      "ç«ŀ": 1291,
      "è¶£": 1292,
      "æĻ®": 1293,
      "æıĲä¾Ľ": 1294,
      "èĻļ": 1295,
      "æľŁéĹ´": 1296,
      "çĽ¸åħ³": 1297,
      "æ¨Ļé»ŀ": 1298,
      "æķ´ä½ĵ": 1299,
      "åĮĹäº¬": 1300,
      "è¾¾åĪ°": 1301,
      "æķ°åŃĹåĮĸ": 1302,
      "æĵįä½ľ": 1303,
      "è±¡": 1304,
      "èİ·": 1305,
      "å¡": 1306,
      "æ¼": 1307,
      "æļ": 1308,
      "ç¢": 1309,
      "ç¯": 1310,
      "ä¸Ķ": 1311,
      "çļĦåįļçī©é¦Ĩ": 1312,
      "ãĢģâĢľ": 1313,
      "åħī": 1314,
      "çĶ±": 1315,
      "ç»¼": 1316,
      "è®®": 1317,
      "æľīæľº": 1318,
      "æľīæķĪ": 1319,
      "åĮ»": 1320,
      "çīĪ": 1321,
      "éĢĴ": 1322,
      "å¾Ģ": 1323,
      "å±Ģ": 1324,
      "äºĨè§£": 1325,
      "çºº": 1326,
      "åĩĢ": 1327,
      "ä¿®": 1328,
      "çĽ´": 1329,
      "éĻį": 1330,
      "æ²¹": 1331,
      "åĪĨæŀĲ": 1332,
      "é«ĺæł¡": 1333,
      "ç§ĳåŃ¦": 1334,
      "ç§ĳæĬĢ": 1335,
      "èĮĥåĽ´": 1336,
      "ä¸ĵçĶ¨": 1337,
      "æĭī": 1338,
      "ä¾ĭ": 1339,
      "åĲĮæĹ¶": 1340,
      "å¾ĹåĪ°": 1341,
      "æ¸ħ": 1342,
      "æĽ´åĬł": 1343,
      "åįļçī©é¦ĨçļĦ": 1344,
      "æ°Ķä½ĵ": 1345,
      "ç¬¬åĽĽ": 1346,
      "éĩįè¦ģ": 1347,
      "éĩįçĤ¹": 1348,
      "æ¯Ķè¾ĥ": 1349,
      "å»ºè®¾çļĦ": 1350,
      "åŃ¦ç§ĳè¯Ħä¼°": 1351,
      "éĹ¨ç¥¨": 1352,
      "è§ĦåĪĴ": 1353,
      "è§Ĥä¼Ĺ": 1354,
      "è·¨": 1355,
      "è·¯": 1356,
      "ç¼º": 1357,
      "èĭ¥": 1358,
      "æ¶Īæ³¡": 1359,
      "èĥľ": 1360,
      "åĸĦ": 1361,
      "ä»»ä½ķ": 1362,
      "è®°èĢħ": 1363,
      "çĸĹ": 1364,
      "çĶŁæĢģæĸĩæĺİ": 1365,
      "æ³¢ç½Ĺ": 1366,
      "åªĴ": 1367,
      "èĳĹ": 1368,
      ")ãĢĤ": 1369,
      "17": 1370,
      "¶åīĤ": 1371,
      "åĤ": 1372,
      "åĻ": 1373,
      "çĮ": 1374,
      "é¾": 1375,
      "åħ«": 1376,
      "ä»ħ": 1377,
      "åıĮ": 1378,
      "åĪĻ": 1379,
      "æĪ·": 1380,
      "æĪı": 1381,
      "åĲĥ": 1382,
      "ä¹°": 1383,
      "ä¹Ŀ": 1384,
      "æľīçļĦ": 1385,
      "åºĵ": 1386,
      "ä¸įæĸŃ": 1387,
      "è¯»": 1388,
      "ç¨³": 1389,
      "åĨ·": 1390,
      "ä¸ªA": 1391,
      "éĿ©": 1392,
      "åĩı": 1393,
      "éĹ²": 1394,
      "å¹´éī´": 1395,
      "æ²³": 1396,
      "æ²Ļ": 1397,
      "è¿ĻäºĽ": 1398,
      "æķĻå¸Ī": 1399,
      "ä»ĸçļĦ": 1400,
      "æĦ¿": 1401,
      "ä¹Łæĺ¯": 1402,
      "åĲĪä½ľ": 1403,
      "ç½®": 1404,
      "å¸ĪèĮĥç±»": 1405,
      "åħ³æ³¨": 1406,
      "è¿ĲèĲ¥": 1407,
      "ä¹ĭéĹ´": 1408,
      "å¹³åı°": 1409,
      "æīįèĥ½": 1410,
      "è¡¨éĿ¢": 1411,
      "è°ģ": 1412,
      "ç¤¾ä¼ļä¸»ä¹ī": 1413,
      "æº¶åīĤ": 1414,
      "æİĴåĲį": 1415,
      "æĬķæłĩ": 1416,
      "éĴ¢": 1417,
      "æĪĸèĢħ": 1418,
      "åİŁåĽł": 1419,
      "éĶĢåĶ®": 1420,
      "å®¹æĺĵ": 1421,
      "æ¸¸æĪı": 1422,
      "è¿Ļæł·çļĦ": 1423,
      "è§īå¾Ĺ": 1424,
      "ç´łè´¨": 1425,
      "èĦ±": 1426,
      "å¿ħé¡»": 1427,
      "ç¬¦èĻŁ": 1428,
      "æ»¡": 1429,
      "ç¾İä¸½ä¸ŃåĽ½": 1430,
      "è¯Ńè¨Ģ": 1431,
      "çĭ¬": 1432,
      "å·¥åķĨèģĶ": 1433,
      "æĮīçħ§": 1434,
      "ç«ŀäºī": 1435,
      "æ¨Ļé»ŀç¬¦èĻŁ": 1436,
      "ç»¼åĲĪ": 1437,
      "åĭ": 1438,
      "æ½": 1439,
      "æĲ": 1440,
      "çĨ": 1441,
      "èħ": 1442,
      "èı": 1443,
      "èľ": 1444,
      "éŁ": 1445,
      "çļĦæĺ¯": 1446,
      "ä»ª": 1447,
      "åĪ¤": 1448,
      "å®³": 1449,
      "è¿ŀ": 1450,
      "æĺł": 1451,
      "ç»ª": 1452,
      "åĬŁ": 1453,
      "åĲ«": 1454,
      "ä¸Ģå®¶": 1455,
      "ä¹Ļ": 1456,
      "åįĸ": 1457,
      "æľīäºĽ": 1458,
      "çĶŁçļĦ": 1459,
      "æī¹": 1460,
      "æĹ¢": 1461,
      "å¯Į": 1462,
      "ä¼ļæľī": 1463,
      "å®¶éķ¿": 1464,
      "åİĭ": 1465,
      "çº¢": 1466,
      "çī©è´¨": 1467,
      "çĽĬ": 1468,
      "éĻĲ": 1469,
      "æĮ¥": 1470,
      "æ±¡": 1471,
      "æ±ī": 1472,
      "æĸ¹åĲĳ": 1473,
      "æĸ¹æ¡Ī": 1474,
      "éģİ": 1475,
      "çĤº": 1476,
      "ä¹Łæ²¡æľī": 1477,
      "è½»": 1478,
      "éĥ¨éĹ¨": 1479,
      "ä¾¿": 1480,
      "éķ¿æ±Ł": 1481,
      "åħ¶ä¸Ń": 1482,
      "åľºæ¯ĶèµĽ": 1483,
      "ç¬¬ä¸ī": 1484,
      "éļĶ": 1485,
      "çĥŃè½¬åį°": 1486,
      "éĥ½æĺ¯": 1487,
      "çľģå±ŀ": 1488,
      "åıªæĺ¯": 1489,
      "åıªæľī": 1490,
      "ç»ĵæŀľ": 1491,
      "æĬķèµĦ": 1492,
      "ä»·åĢ¼": 1493,
      "æĶ¿çŃĸ": 1494,
      "èģĶåĲĪ": 1495,
      "åĨ³çŃĸ": 1496,
      "è¿Ľé¡¹ç¨İé¢Ŀ": 1497,
      "çĻ½": 1498,
      "éĻ¢æł¡": 1499,
      "çº³ç¨İ": 1500,
      "æ¹ĸåĮĹ": 1501,
      "æ£ĢæŁ¥": 1502,
      "å±Ĥæ¬¡": 1503,
      "è¿ĩç¨ĭä¸Ń": 1504,
      "è¾ĵéĢģ": 1505,
      "ç§¯æŀģ": 1506,
      "å¥³åŃ©": 1507,
      "åİĨåı²": 1508,
      "è½®åŃ¦ç§ĳè¯Ħä¼°": 1509,
      "ä¸Ģå®ļçļĦ": 1510,
      "æ¹ĸåįĹå¸ĪèĮĥå¤§åŃ¦": 1511,
      "å¢ŀåĢ¼ç¨İä¸ĵçĶ¨": 1512,
      "ç»¿èī²": 1513,
      "åĲ¸éĻĦ": 1514,
      "èĩªåĬ¨åĮĸ": 1515,
      "çıŃ": 1516,
      "ç¯®": 1517,
      "éĻįä½İ": 1518,
      "ç¨³å®ļ": 1519,
      "å¢ŀåĢ¼ç¨İä¸ĵçĶ¨åıĳç¥¨": 1520,
      "100": 1521,
      "30": 1522,
      "¼åĦ¿": 1523,
      "Ķéģĵ": 1524,
      "ä¸¥": 1525,
      "çļĦä¼ģä¸ļ": 1526,
      "äºļ": 1527,
      "åħ¸": 1528,
      "åħį": 1529,
      "å¤ª": 1530,
      "å¤į": 1531,
      "çĶ³": 1532,
      "ä½Ļ": 1533,
      "ä¼´": 1534,
      "ä¸ĢçĶŁ": 1535,
      "å¹¼åĦ¿": 1536,
      "æĢİ": 1537,
      "åĴĮè°": 1538,
      "è¯ģ": 1539,
      "å¾ħ": 1540,
      "å¾ĭ": 1541,
      "åĽ½æ°ĳ": 1542,
      "æĿĳ": 1543,
      "è§Ĩ": 1544,
      "å¥ĸ": 1545,
      "ä¸ªäºº": 1546,
      "ä»¥åĲİ": 1547,
      "è´¢": 1548,
      "å·¥ä¸ļ": 1549,
      "éĿł": 1550,
      "çº¦": 1551,
      "å½»": 1552,
      "ä¿ĥ": 1553,
      "å¤ļçº³": 1554,
      "æĪĳå®¶": 1555,
      "å¹´çļĦ": 1556,
      "ä½ĵèĤ²": 1557,
      "åı¯æĺ¯": 1558,
      "æ¯į": 1559,
      "âĢĿãĢģâĢľ": 1560,
      "åģĩ": 1561,
      "è¿ĩåİ»": 1562,
      "åĵģè´¨": 1563,
      "æĹ¶éĹ´": 1564,
      "æĸ¹æ³ķ": 1565,
      "å»ºç«ĭ": 1566,
      "ä¸ŃåĽ½çī¹èī²": 1567,
      "åĪ¶èį¯": 1568,
      "è®¡åĪĴ": 1569,
      "æĽ¸": 1570,
      "æĸĩåŃ¦": 1571,
      "å¼Ģå±ķ": 1572,
      "æľ¬ç§ĳ": 1573,
      "æĪ¿åŃĲ": 1574,
      "åŃ¦çĶŁçļĦ": 1575,
      "åľ°åĮº": 1576,
      "å°±ä¸ļ": 1577,
      "åħ¶ä»ĸ": 1578,
      "æĻ¯": 1579,
      "èµĦæĸĻ": 1580,
      "éĢłçº¸": 1581,
      "åħ·å¤ĩ": 1582,
      "åħ³ç³»": 1583,
      "ç¬¬äºĮ": 1584,
      "æĦıè¯Ĩ": 1585,
      "æĥħç»ª": 1586,
      "è¡¨ç¤º": 1587,
      "å½ĵä»£": 1588,
      "ä½įäºİ": 1589,
      "æķĻèĤ²éĥ¨": 1590,
      "æ´»æĢ§": 1591,
      "æŁĶéģĵ": 1592,
      "å°ıå¥³åŃ©": 1593,
      "å¢ŀå¼º": 1594,
      "ç¤ºçĿĢ": 1595,
      "ç¼ĸ": 1596,
      "çľĭåĪ°": 1597,
      "å·¥ç¨ĭæĬĢæľ¯": 1598,
      "å·¥ç¨ĭå¤§åŃ¦": 1599,
      "æīĵåį°": 1600,
      "æĮĩå¯¼": 1601,
      "äººæīįåŁ¹åħ»": 1602,
      "æĸ¹éĿ¢çļĦ": 1603,
      "åıĺåĮĸ": 1604,
      "åħļçļĦ": 1605,
      "å¿«éĢĴ": 1606,
      "çĸ«": 1607,
      "èī¯å¥½çļĦ": 1608,
      "éĶĢé¡¹": 1609,
      "èĪ¬èĭ¥": 1610,
      "éħį": 1611,
      "é¢ĨåŁŁ": 1612,
      "éĵĿ": 1613,
      "ç»´æĬ¤": 1614,
      "åıįæĺł": 1615,
      "é¢Ħç¤ºçĿĢ": 1616,
      "æ¸©åº¦": 1617,
      "é©¬å°Ķ": 1618,
      "åĦ¿åŃĲ": 1619,
      "æĺ¥èĬĤæľŁéĹ´": 1620,
      "çĬ¶æĢģ": 1621,
      "èªª": 1622,
      "åıĤä¸İ": 1623,
      "è´§çī©": 1624,
      "åĿļæĮģ": 1625,
      "æ¢¦è§ģ": 1626,
      "çªĹ": 1627,
      "è©©": 1628,
      "æģ¶èĩŃ": 1629,
      "ä¸¤ä¸ªå°ıå¥³åŃ©": 1630,
      "çĹĽ": 1631,
      "æĿ¡ä»¶": 1632,
      "æł¸å¿ĥ": 1633,
      "èŀį": 1634,
      "åħħåĪĨ": 1635,
      "ä¼ĳéĹ²": 1636,
      "å¸®åĬ©": 1637,
      "é¾Ļ": 1638,
      "æ±¡æŁĵ": 1639,
      "å¹¼åĦ¿åĽŃ": 1640,
      "å¤ļçº³å¤ļ": 1641,
      "é©¬å°Ķå¤ļçº³å¤ļ": 1642,
      "),": 1643,
      ")ãĢģ": 1644,
      "300": 1645,
      "¥æľī": 1646,
      "ªåĬĽ": 1647,
      "éĸ": 1648,
      "īæ°´": 1649,
      "Ĵæľī": 1650,
      "ľå¤ļ": 1651,
      "çļĦå¿µ": 1652,
      "åıĭ": 1653,
      "è¿ľ": 1654,
      "åĽ¾": 1655,
      "ç»Ī": 1656,
      "åĬªåĬĽ": 1657,
      "åĲ§": 1658,
      "ä¸ĢæŃ¥": 1659,
      "åį´": 1660,
      "ä¸įå¥½": 1661,
      "ä¸įè¶³": 1662,
      "ä¸įä»ħ": 1663,
      "äººç±»": 1664,
      "çīĮ": 1665,
      "æĢķ": 1666,
      "è¯¾": 1667,
      "æł¹": 1668,
      "å¾Į": 1669,
      "åĽ½éĻħ": 1670,
      "è§Ī": 1671,
      "çĲĨå¿µ": 1672,
      "å¯«": 1673,
      "ä¸ªB": 1674,
      "åıĳèĤ²": 1675,
      "è´¯": 1676,
      "è´Ł": 1677,
      "åĵª": 1678,
      "å½©": 1679,
      "å½¬": 1680,
      "å½ķ": 1681,
      "æ³īæ°´": 1682,
      "çŃīæĸ¹éĿ¢": 1683,
      "è¿Ľä¸ĢæŃ¥": 1684,
      "ä½ĵçļĦ": 1685,
      "æ²Ĵæľī": 1686,
      "æµĵ": 1687,
      "åĪĨåĮħ": 1688,
      "æĬĢèĥ½": 1689,
      "åģı": 1690,
      "æĸ¹å¼ı": 1691,
      "èĤ¡": 1692,
      "çĤ¼": 1693,
      "çĥ¦": 1694,
      "æĭ©": 1695,
      "ç½ļ": 1696,
      "è½¦": 1697,
      "èģĺ": 1698,
      "èģļ": 1699,
      "éķ¿æľŁ": 1700,
      "ç¡¬": 1701,
      "çŁ¿": 1702,
      "æĸ°æĹ¶ä»£": 1703,
      "åĨħå®¹": 1704,
      "åķĨä¼ļ": 1705,
      "åŁºæľ¬": 1706,
      "è¿ĲåĬ¨": 1707,
      "åĽ½å®¶çº§": 1708,
      "åģ¥åº·æ£ĢæŁ¥": 1709,
      "äºĭä¸ļ": 1710,
      "äºĭæĥħ": 1711,
      "éĶ®": 1712,
      "è§ĦèĮĥ": 1713,
      "çº§åŃ¦ç§ĳ": 1714,
      "å¢ŀéķ¿": 1715,
      "è·µ": 1716,
      "åĲįçļĦ": 1717,
      "æľįè£ħ": 1718,
      "åŀĭæĿĲ": 1719,
      "æ¶ĪéĻ¤": 1720,
      "æ¶Īè´¹": 1721,
      "çĻ¾": 1722,
      "äº¬ä¸ľ": 1723,
      "æĸ¯çī¹": 1724,
      "ä¿ĿæĬ¤": 1725,
      "éĩĩçĶ¨": 1726,
      "éĿĴå¥¥": 1727,
      "ä¸įåĲĮçļĦ": 1728,
      "æīĭæ®µ": 1729,
      "çĶµåŃĲæĬĢæľ¯": 1730,
      "èĵĿ": 1731,
      "äº²åŃĲ": 1732,
      "æ¨¡å¼ı": 1733,
      "æ°§åĮĸ": 1734,
      "çĪ¶æ¯į": 1735,
      "åºĶè¯¥æĺ¯": 1736,
      "å¦Īå¦Ī": 1737,
      "è¶ħè¿ĩ": 1738,
      "æĶ¯æĮģ": 1739,
      "èİ·å¾Ĺ": 1740,
      "çĶ±äºİ": 1741,
      "åĩĢåĮĸ": 1742,
      "ç¬¬åĽĽè½®åŃ¦ç§ĳè¯Ħä¼°": 1743,
      "æ¶Īæ³¡åīĤ": 1744,
      "æ³¢ç½Ĺèľ": 1745,
      "çĨŁ": 1746,
      "åĬŁèĥ½": 1747,
      "éļĶçĥŃ": 1748,
      "ç¯®çĲĥ": 1749,
      "åĴĮè°Ĳ": 1750,
      "ä¸ŃåĽ½çī¹èī²ç¤¾ä¼ļä¸»ä¹ī": 1751,
      "éĶĢé¡¹ç¨İé¢Ŀ": 1752,
      "çļĦå¿µå¤´": 1753,
      "æ³¢ç½Ĺèľľå¤ļ": 1754,
      ",âĢľ": 1755,
      "10": 1756,
      "16": 1757,
      ":âĢľ": 1758,
      "£¨": 1759,
      "¯å®ļ": 1760,
      "±ä¹Ĳ": 1761,
      "½çĦ¶": 1762,
      "¾çļĦ": 1763,
      "å©": 1764,
      "å³": 1765,
      "æ¦": 1766,
      "æĩ": 1767,
      "çĵ": 1768,
      "çĺ": 1769,
      "ç£¨": 1770,
      "Ĥå¿µ": 1771,
      "ļèĩ³": 1772,
      "çļĦéĹ®é¢ĺ": 1773,
      "äº¿": 1774,
      "ä»½": 1775,
      "åı¦": 1776,
      "åŃ¸": 1777,
      "åĪĹ": 1778,
      "å®£": 1779,
      "å®½": 1780,
      "çĶ°": 1781,
      "çĶļèĩ³": 1782,
      "åĽ°": 1783,
      "ç»©": 1784,
      "åĬ³": 1785,
      "ä¸Ģä½į": 1786,
      "ä¸Ģæ¬¡": 1787,
      "ä¸Ģæł·": 1788,
      "ä¸ĢåĪĩ": 1789,
      "è®¸": 1790,
      "ä¹ı": 1791,
      "åį¡": 1792,
      "æľīåħ³": 1793,
      "ä¸įèī¯": 1794,
      "å·´": 1795,
      "å·ŀ": 1796,
      "ä¸ŃåŃ¦": 1797,
      "ä¸Ńåįİ": 1798,
      "äººå£«": 1799,
      "çī¢": 1800,
      "æĢ¥": 1801,
      "æī§": 1802,
      "æĹĭ": 1803,
      "è¯ļ": 1804,
      "ç§ģ": 1805,
      "âĢĶ": 1806,
      "å¾Ħ": 1807,
      "å¾Ĳ": 1808,
      "åĽ½åĨħ": 1809,
      "æĿĥ": 1810,
      "ä¸ºäºĨ": 1811,
      "ä¸ºä¸»": 1812,
      "ä»¥ä¸Ĭ": 1813,
      "ä»¥æĿ¥": 1814,
      "è´£": 1815,
      "åĩ»": 1816,
      "å¿ĥç»ı": 1817,
      "æĥĳ": 1818,
      "è¿Ľåħ¥": 1819,
      "æĪĲäºĨ": 1820,
      "æĪĲç«ĭ": 1821,
      "çİ°å®ŀ": 1822,
      "å®ŀéĻħ": 1823,
      "å®ŀè·µ": 1824,
      "æµĭ": 1825,
      "æľ¯é¦Ĩ": 1826,
      "çľ¼": 1827,
      "ä¸İåĪ¶éĢł": 1828,
      "åĪĨåŃĲ": 1829,
      "åĪĨåĪ«": 1830,
      "æĢ§èĥ½": 1831,
      "æ¯Ľ": 1832,
      "æĮ¯": 1833,
      "ä¼ģä¸ļå®¶": 1834,
      "ç§ĳçłĶ": 1835,
      "åĵģçīĮ": 1836,
      "æģ¼": 1837,
      "èĤ¯å®ļ": 1838,
      "åºĶçļĦ": 1839,
      "åĳ¢": 1840,
      "çĤŃ": 1841,
      "ä¹Łä¸į": 1842,
      "ç¨ĭåº¦": 1843,
      "æĭ¥æľī": 1844,
      "å¼ĢæĶ¾": 1845,
      "æľ¬ä¸ĵä¸ļ": 1846,
      "åĽłç´ł": 1847,
      "åĩºçİ°": 1848,
      "åĩºçīĪ": 1849,
      "å¢¨": 1850,
      "åħ¬åħ±": 1851,
      "çķ¥": 1852,
      "éĢłæĪĲ": 1853,
      "çŁŃ": 1854,
      "èĻĳ": 1855,
      "èĻ½çĦ¶": 1856,
      "åħ³éĶ®": 1857,
      "ä¸ĵä¸ļçŁ¥è¯Ĩ": 1858,
      "åŁºåľ°": 1859,
      "è¿ĺæľī": 1860,
      "è¡¨çİ°": 1861,
      "åģ¥åº·ç®¡çĲĨ": 1862,
      "åģ¥åº·äº§ä¸ļ": 1863,
      "ç¾İæľ¯é¦Ĩ": 1864,
      "èĪª": 1865,
      "éĹ¨çªĹ": 1866,
      "æłĩåĩĨ": 1867,
      "åħ±åĲĮ": 1868,
      "åħ±äº«": 1869,
      "å¿ĥçĲĨåģı": 1870,
      "ç¦ı": 1871,
      "çŁ¥éģĵ": 1872,
      "è½¬åŀĭ": 1873,
      "ç»ĵæŀĦ": 1874,
      "ç¼ĺ": 1875,
      "åįĹäº¬": 1876,
      "æĶ¿æ²»": 1877,
      "åŁ¹åħ»åŃ¦çĶŁ": 1878,
      "æĮģç»Ń": 1879,
      "è®¤çľŁ": 1880,
      "è¯Ħä»·": 1881,
      "é£Ł": 1882,
      "ç½ĳç»ľæ¸¸æĪı": 1883,
      "éĿŀåħ¬": 1884,
      "æ²»çĸĹ": 1885,
      "æ£Ģæµĭ": 1886,
      "æĿĲæĸĻ": 1887,
      "è®¾è®¡ä¸İåĪ¶éĢł": 1888,
      "åıįåºĶ": 1889,
      "ç»Ħç»ĩ": 1890,
      "çģ«": 1891,
      "å¼ķå¯¼": 1892,
      "èīºæľ¯å¸Ĥåľº": 1893,
      "æĤī": 1894,
      "éĢīæĭ©": 1895,
      "ç¬¦åĲĪ": 1896,
      "æ·±åħ¥": 1897,
      "èĵĦ": 1898,
      "çĪ±äºº": 1899,
      "çªģ": 1900,
      "è®¡ç®ĹæľºæĬĢæľ¯": 1901,
      "éĨĩ": 1902,
      "åıĸå¾Ĺ": 1903,
      "åĪĿä¸Ń": 1904,
      "æ¯ķä¸ļçĶŁ": 1905,
      "å®Ŀå®Ŀ": 1906,
      "çĶŁçī©åŃ¦": 1907,
      "èĻļå¼Ģ": 1908,
      "çººç»ĩ": 1909,
      "ç¼ºä¹ı": 1910,
      "çĮ®": 1911,
      "æº¶åīĤåºŁæ°Ķ": 1912,
      "è¯Ńè¨ĢæĸĩåŃ¦": 1913,
      "èħĲ": 1914,
      "æ´»æĢ§çĤŃ": 1915,
      "åħļçļĦåįģ": 1916,
      "çĸ«æĥħ": 1917,
      "èĪ¬èĭ¥æ³¢ç½Ĺèľľå¤ļ": 1918,
      "æ¢¦è§ģä¸¤ä¸ªå°ıå¥³åŃ©": 1919,
      "è´¯å½»": 1920,
      "çĥ¦æģ¼": 1921,
      "çŁ¿æ³īæ°´": 1922,
      "å¿ĥçĲĨåģıå·®": 1923,
      "--": 1924,
      "12": 1925,
      "13": 1926,
      "Dæīĵåį°": 1927,
      "¦åı": 1928,
      "¸Ł": 1929,
      "¹çļĦ": 1930,
      "æĴ": 1931,
      "è²": 1932,
      "èĸ": 1933,
      "é¸Ł": 1934,
      "ķå£«": 1935,
      "ŃçļĦ": 1936,
      "çļĦå¤§": 1937,
      "çļĦåıĳå±ķ": 1938,
      "çļĦæĬĢæľ¯": 1939,
      "çļĦä¿¡æģ¯åĮĸ": 1940,
      "çļĦäºĭæĥħ": 1941,
      "äº¦": 1942,
      "äºĪ": 1943,
      "äºĴ": 1944,
      "åħ°": 1945,
      "åħŃ": 1946,
      "ä»¤": 1947,
      "åĪ·": 1948,
      "åĪļ": 1949,
      "å®ĺ": 1950,
      "ä½ı": 1951,
      "ç»§": 1952,
      "ç»Ĩ": 1953,
      "åĬ±": 1954,
      "ä¸Ģä½ĵ": 1955,
      "ä¹¡": 1956,
      "åį±": 1957,
      "æĺ¯ä»¥": 1958,
      "æĺ¯ä¸Ģä¸ª": 1959,
      "æľīåĪ¶": 1960,
      "æľīåĪ©": 1961,
      "åºĨ": 1962,
      "åºľ": 1963,
      "äººä¸İ": 1964,
      "äººä»¬": 1965,
      "åĴĴ": 1966,
      "è¯¸": 1967,
      "è¯ī": 1968,
      "ç§°": 1969,
      "æĿ¾": 1970,
      "æĿĤ": 1971,
      "æĿŁ": 1972,
      "å¼Ĥ": 1973,
      "è§¦": 1974,
      "æ°¯": 1975,
      "èĥ½åľ¨": 1976,
      "èĢĹ": 1977,
      "å¯Ĩ": 1978,
      "åĨ²": 1979,
      "åĮĸåŃ¦": 1980,
      "åıĳçĶŁ": 1981,
      "åıĳå¸ĥ": 1982,
      "åıĳæĮ¥": 1983,
      "çºª": 1984,
      "éĹ»": 1985,
      "åĵŃ": 1986,
      "çĶ¨æĪ·": 1987,
      "éĻ©": 1988,
      "ä¸Ĭæµ·": 1989,
      "è¿ĽçĲĥ": 1990,
      "å±ķç¤º": 1991,
      "æĪĳè§īå¾Ĺ": 1992,
      "å¹´æĿ¥": 1993,
      "çİ°åľº": 1994,
      "ä½ĵæ£Ģ": 1995,
      "èĩªèº«": 1996,
      "èĩªè§ī": 1997,
      "è¡Įä¸º": 1998,
      "æŃ»": 1999,
      "æŃĩ": 2000,
      "ä½ľçĶ¨": 2001,
      "æĮĤ": 2002,
      "ç»ıè¿ĩ": 2003,
      "ç»ıéªĮ": 2004,
      "ç»ıåħ¸": 2005,
      "æ±ł": 2006,
      "åĳ³": 2007,
      "æŀĹ": 2008,
      "ä¹Łè¦ģ": 2009,
      "æľºçĶµ": 2010,
      "æ¬¢": 2011,
      "åĪ¶åº¦": 2012,
      "çī¹æ®": 2013,
      "æĭħ": 2014,
      "æĸĩä»¶": 2015,
      "å¼Ģå§ĭ": 2016,
      "åįļå£«": 2017,
      "æł¡åĽŃ": 2018,
      "åĩºæĿ¥": 2019,
      "åĩºåİ»": 2020,
      "ä¾Ĩ": 2021,
      "éķ¿æĬķ": 2022,
      "ç«Ļ": 2023,
      "æĹłéľĢ": 2024,
      "æ¶¨": 2025,
      "çĶµåķĨ": 2026,
      "ç¡ķå£«": 2027,
      "æıĲåĩº": 2028,
      "ç±³": 2029,
      "ä»İèĢĮ": 2030,
      "ä¿¡æģ¯å¤ĦçĲĨ": 2031,
      "çĽ¸åºĶçļĦ": 2032,
      "åŁºéĩĳ": 2033,
      "è¿Ĳè¾ĵ": 2034,
      "åĽ½å®¶ç¨İæ¬¾": 2035,
      "åĿĹ": 2036,
      "ç¾İå¥½": 2037,
      "è°Ī": 2038,
      "éĥ½æľī": 2039,
      "éľĢæ±Ĥ": 2040,
      "ç´§": 2041,
      "æ°ĳå·¥": 2042,
      "çĽ®åīį": 2043,
      "å°ıèªª": 2044,
      "è§Ħå®ļ": 2045,
      "åıªè¦ģ": 2046,
      "æķĪçİĩ": 2047,
      "å¯¼èĩ´": 2048,
      "æŃ£ç¡®": 2049,
      "ç»ĵåĲĪ": 2050,
      "å¹¶ä¸Ķ": 2051,
      "åį°åĪ·": 2052,
      "2020": 2053,
      "æīĵéĢł": 2054,
      "æĮĩæłĩ": 2055,
      "æ¡¥": 2056,
      "æķ´åĲĪ": 2057,
      "æĶ¿åºľ": 2058,
      "è®¾å¤ĩçļĦ": 2059,
      "ç¦»å¼Ģ": 2060,
      "åĸ·": 2061,
      "åĸľ": 2062,
      "è®¤ä¸º": 2063,
      "è®¤è¯Ĩ": 2064,
      "åĨ³å®ļ": 2065,
      "äºĶå¤§": 2066,
      "åħĭæĸ¯çī¹": 2067,
      "çŃĸåĪĴ": 2068,
      "åĮºåŁŁ": 2069,
      "åı¯èĥ½ä¼ļ": 2070,
      "éĻ¤äºĨ": 2071,
      "æķĻåŃ¦è´¨éĩı": 2072,
      "ç½ĳç»ľæĬĢæľ¯": 2073,
      "éĽĨåĽ¢": 2074,
      "éħ®": 2075,
      "éĿŀå¸¸": 2076,
      "é¢Ĩå¯¼": 2077,
      "æ²»çĲĨ": 2078,
      "éĵģ": 2079,
      "æľªæĿ¥": 2080,
      "å¾·åħĭæĸ¯çī¹": 2081,
      "éĿĴå¹´": 2082,
      "å¹¿ä¸ľ": 2083,
      "æİ¥åıĹ": 2084,
      "æĺ¾ç¤º": 2085,
      "åįķä½į": 2086,
      "åįİä¸Ń": 2087,
      "æķ°æİ§åĬłå·¥": 2088,
      "æĤŁ": 2089,
      "æĪĺçķ¥": 2090,
      "èĢģå¸Ī": 2091,
      "éļıçĿĢ": 2092,
      "çĬ¶åĨµ": 2093,
      "åĩłå¤©": 2094,
      "æĶ¹éĿ©": 2095,
      "åı¥èĻŁ": 2096,
      "èĩªçĦ¶åĴĮè°Ĳ": 2097,
      "é¦ĸåħĪ": 2098,
      "åĿļå®ļ": 2099,
      "çĪ¶åŃĲ": 2100,
      "éĤ£ä¹Ī": 2101,
      "åºĹéĿ¢": 2102,
      "çİ°ä»£åĮĸ": 2103,
      "çī¹åĪ«æĺ¯": 2104,
      "çĹħ": 2105,
      "æī¾åĪ°": 2106,
      "æĽ´å¤ļçļĦ": 2107,
      "éłģ": 2108,
      "å¾ģä¿¡": 2109,
      "çļ®ä¹¦": 2110,
      "çļĦé«ĺçŃī": 2111,
      "åĨľæ°ĳå·¥": 2112,
      "ä¼ģä¸ļä¿¡æģ¯åĮĸçļĦ": 2113,
      "æĻ®éĢļ": 2114,
      "æľīæľºåºŁæ°Ķ": 2115,
      "ä¾ĭå¦Ĥ": 2116,
      "åªĴä½ĵ": 2117,
      "åĻ¨": 2118,
      "ä¹Ŀå¤§": 2119,
      "åºĵéĩĮ": 2120,
      "çĭ¬ç«ĭ": 2121,
      "æĲ¬": 2122,
      "éŁ³": 2123,
      "ä»ªè¡¨": 2124,
      "çº³ç¨İäºº": 2125,
      "ä¸¥éĩį": 2126,
      "ä¿ĥè¿Ľ": 2127,
      "éħįéĢģ": 2128,
      "çĹĽèĭ¦": 2129,
      "æ±¡æŁĵçī©": 2130,
      "æ¶Īè´¹èĢħ": 2131,
      "éĿĴå¥¥ä¼ļ": 2132,
      "èĵĿçļ®ä¹¦": 2133,
      "äº²åŃĲç¥¨": 2134,
      "çĨŁæĤī": 2135,
      "åı¦å¤ĸ": 2136,
      "é£Łåĵģ": 2137,
      "æ£Ģæµĭä¸İ": 2138,
      "èĵĦçĥŃ": 2139,
      "æ´»æĢ§çĤŃåĲ¸éĻĦ": 2140,
      "åħļçļĦåįģä¹Ŀå¤§": 2141,
      "ä¸Ģä½ĵåĮĸ": 2142,
      "äººä¸İèĩªçĦ¶åĴĮè°Ĳ": 2143,
      "æľºçĶµä¸Ģä½ĵåĮĸ": 2144,
      "çī¹æ®Ĭ": 2145,
      "äººä¸İèĩªçĦ¶åĴĮè°Ĳåħ±": 2146,
      "200": 2147,
      "47": 2148,
      "60": 2149,
      "98": 2150,
      "in": 2151,
      "¡çĮ®": 2152,
      "Â°": 2153,
      "æ¥": 2154,
      "çĩ": 2155,
      "çĳ": 2156,
      "é¤": 2157,
      "éº": 2158,
      "éĭ": 2159,
      "éŃ": 2160,
      "ħåĬ©": 2161,
      "Įåħĭ": 2162,
      "ĳæĪĺ": 2163,
      "ķè¥¿": 2164,
      "Ĺä½į": 2165,
      "ĹèĻŁ": 2166,
      "łéģĵ": 2167,
      "çļĦæĹ¶": 2168,
      "çļĦæķĻèĤ²": 2169,
      "çļĦéĥ¨åĪĨ": 2170,
      "çļĦæķ°æį®": 2171,
      "çļĦæĸĩåĮĸ": 2172,
      "çļĦçī©æµģ": 2173,
      "ãĢĤâĢĿ": 2174,
      "å¤«": 2175,
      "å¤®": 2176,
      "å¤ľ": 2177,
      "è¿·": 2178,
      "è¿İ": 2179,
      "çĶ²": 2180,
      "ä½Ľ": 2181,
      "åĽº": 2182,
      "ä¼¼": 2183,
      "ä¼Ł": 2184,
      "åĲ¦": 2185,
      "åĲ¬": 2186,
      "åĲ¯": 2187,
      "åŃ¦èĢħ": 2188,
      "åŃ¦éĻ¢": 2189,
      "ä¸Ģå¹´": 2190,
      "ä¸Ģé¡¹": 2191,
      "ä¸Ģä¸ĭ": 2192,
      "ä¸Ģçº¿": 2193,
      "ä¸ĢçĽ´": 2194,
      "ä¹Įåħĭ": 2195,
      "åį¢": 2196,
      "åįĬ": 2197,
      "åįı": 2198,
      "æľīä½ł": 2199,
      "åº§": 2200,
      "åº·": 2201,
      "åºĬ": 2202,
      "åºı": 2203,
      "åºŃ": 2204,
      "æķ£": 2205,
      "ä¸įå°ĳ": 2206,
      "å·¦åı": 2207,
      "ä¸Ńå¤®": 2208,
      "äººåĵģ": 2209,
      "äººåĳĺ": 2210,
      "æĬĵ": 2211,
      "æī©": 2212,
      "æī¬": 2213,
      "æīĺ": 2214,
      "åĴĮåĽ½": 2215,
      "éĢĹèĻŁ": 2216,
      "å¤§ä¼ļ": 2217,
      "å¤§å¤ļ": 2218,
      "å¤§èĩªçĦ¶": 2219,
      "ç§Ģ": 2220,
      "å°¼": 2221,
      "åĽ½åĬ¡": 2222,
      "å±ħ": 2223,
      "äºĨä¸ŃåĽ½": 2224,
      "å¼±": 2225,
      "ç¨®": 2226,
      "è¦Ĩ": 2227,
      "çİ©": 2228,
      "çŃĳ": 2229,
      "èµ¶": 2230,
      "èµĸ": 2231,
      "å¥ĭ": 2232,
      "å¥Ĺ": 2233,
      "å¯Ł": 2234,
      "åĨĮ": 2235,
      "åĨĻ": 2236,
      "åĮĸå·¥": 2237,
      "è´¡çĮ®": 2238,
      "å·¥èīº": 2239,
      "éĿĻ": 2240,
      "æİª": 2241,
      "æİĪ": 2242,
      "æİī": 2243,
      "å®¶åħ·": 2244,
      "å®¶çºº": 2245,
      "å®¶åºŃ": 2246,
      "åİļ": 2247,
      "åĩĿ": 2248,
      "å¤ļä¸ª": 2249,
      "éĻ¶": 2250,
      "éĻķè¥¿": 2251,
      "å¿ĥçļĦ": 2252,
      "æĥ¯": 2253,
      "å±ķçİ°": 2254,
      "å±ķè§Ī": 2255,
      "æĪĲéķ¿": 2256,
      "æĪĲæŀľ": 2257,
      "æĪĲçĺ": 2258,
      "æĪĲç»©": 2259,
      "çİ°æľī": 2260,
      "ä½ĵç³»": 2261,
      "åı¯éĿł": 2262,
      "èĩªè¡Į": 2263,
      "æĿ¥è¯´": 2264,
      "æĿ¥è¶Ĭ": 2265,
      "åĪĨç¦»": 2266,
      "é«ĺæķĪ": 2267,
      "é«ĺå¾·": 2268,
      "ä½ľä¸ļ": 2269,
      "æĮĳæĪĺ": 2270,
      "ç»ıå¸¸": 2271,
      "è¿ĩæĿ¥": 2272,
      "æķ°ä¸º": 2273,
      "é¦Ļ": 2274,
      "å¯¹å®ŀéªĮå®¤": 2275,
      "æ±ĩ": 2276,
      "äºİæĺ¯": 2277,
      "ç®Ģ": 2278,
      "ä»ĸæĺ¯": 2279,
      "è¾ħåĬ©": 2280,
      "åĳ¨": 2281,
      "ä¸ŃåĽ½å·¥åķĨèģĶ": 2282,
      "æľºåĪ¶": 2283,
      "åĢį": 2284,
      "åĢĳ": 2285,
      "åĢĻ": 2286,
      "åĢŁ": 2287,
      "æĬĢæľ¯ä¸ĵä¸ļ": 2288,
      "åħ¨çĲĥ": 2289,
      "çĥĪ": 2290,
      "æĽ¾": 2291,
      "æľ¬æĿ¥": 2292,
      "æľ¬èº«": 2293,
      "æľ¬æĽ¸": 2294,
      "è¶ĭ": 2295,
      "åĲĮåŃ¦": 2296,
      "ç»Łä¸Ģ": 2297,
      "å°±ä¼ļ": 2298,
      "æ¸łéģĵ": 2299,
      "åĬłå¼º": 2300,
      "ä¸ľè¥¿": 2301,
      "ä¸ľåĮĹ": 2302,
      "æĹłæ³ķ": 2303,
      "æĽ´å¥½": 2304,
      "æ¶µ": 2305,
      "æ¶Ĥ": 2306,
      "æ¶ī": 2307,
      "ç¾¤": 2308,
      "èµĦäº§": 2309,
      "èµĦæł¼": 2310,
      "èĢĮè¨Ģ": 2311,
      "æīĢæľīçļĦ": 2312,
      "åıĬæĹ¶": 2313,
      "åıĬåħ¶": 2314,
      "çĿ¡": 2315,
      "æľŁæľĽ": 2316,
      "ä½¿åħ¶": 2317,
      "åķĨéĩı": 2318,
      "åĲİçļĦ": 2319,
      "æ¯Ķå¦Ĥ": 2320,
      "æĦıè§ģ": 2321,
      "å¦Ĥä½ķ": 2322,
      "åŁºäºİ": 2323,
      "ä¹ĭä¸Ģ": 2324,
      "å¹³åĿĩ": 2325,
      "å»ºè®¾ç¾İä¸½ä¸ŃåĽ½": 2326,
      "ä»£è¡¨": 2327,
      "å¾Īå¤§çļĦ": 2328,
      "è°¢": 2329,
      "æµģç¨ĭ": 2330,
      "èĪ¹": 2331,
      "èĪį": 2332,
      "éĶĻ": 2333,
      "æĺİæĺ¾": 2334,
      "èī²çļĦ": 2335,
      "çĦ¦": 2336,
      "ä¸īä¸Ģ": 2337,
      "çľģåĨħ": 2338,
      "çľģçº§": 2339,
      "å¤Ħç½ļ": 2340,
      "æŁĲ": 2341,
      "ç´¢": 2342,
      "ç´¯": 2343,
      "å¸ĪèĮĥå¤§åŃ¦çļĦ": 2344,
      "ç©ºæ°Ķ": 2345,
      "åħ±åĴĮåĽ½": 2346,
      "å°ıåŃ¦": 2347,
      "å°ıæĹ¶": 2348,
      "ç½ĳåĲ§": 2349,
      "çĪĨ": 2350,
      "èĲ½": 2351,
      "åĪ«äºº": 2352,
      "æĬķåħ¥": 2353,
      "æĻºèĥ½": 2354,
      "å£°": 2355,
      "2011": 2356,
      "æĮĩåĩº": 2357,
      "èĥĮ": 2358,
      "èĥİ": 2359,
      "å®¤åĨħ": 2360,
      "è®©åŃ©åŃĲ": 2361,
      "è¥¿åįĹ": 2362,
      "ä»»åĬ¡": 2363,
      "åĪĽä¸ļ": 2364,
      "åĪĽéĢł": 2365,
      "åĲĦç§į": 2366,
      "ç»ıæµİäººå£«": 2367,
      "å¸¦æĿ¥": 2368,
      "åĪ¶éĢłä¸ļ": 2369,
      "ç³»ç»Łå·¥ç¨ĭ": 2370,
      "åħļåĳĺ": 2371,
      "éĢĤçĶ¨": 2372,
      "èī¯å¥½": 2373,
      "é»Ħ": 2374,
      "å§Ķ": 2375,
      "çľŁæŃ£": 2376,
      "æľįåĬ¡çŃī": 2377,
      "ä¼łç»Ł": 2378,
      "éĩĩè´Ń": 2379,
      "ç»Łè®¡èµĦæĸĻ": 2380,
      "ç»´ä¿®": 2381,
      "ä¼ĺåħĪ": 2382,
      "æĸŃæ¡¥": 2383,
      "åºĶçĶ¨åŀĭ": 2384,
      "è¶ĬæĿ¥è¶Ĭ": 2385,
      "åŃ¦ä¹łè´¯å½»": 2386,
      "çłĶç©¶çĶŁ": 2387,
      "çģµ": 2388,
      "æ¡Īä¾ĭ": 2389,
      "é©¬åħĭ": 2390,
      "æĦŁåıĹ": 2391,
      "é¥°": 2392,
      "åĽ¢éĺŁ": 2393,
      "åĩłä¸ª": 2394,
      "ä¾ĿçĦ¶": 2395,
      "è½®èĥİ": 2396,
      "æľºæ¢°åĪ¶éĢł": 2397,
      "åħ´è¶£": 2398,
      "åŃĺåľ¨çļĦéĹ®é¢ĺ": 2399,
      "å²ģ": 2400,
      "å²Ĺä½į": 2401,
      "æħ¢": 2402,
      "åĬŀåŃ¦": 2403,
      "äººæ°ĳåħ±åĴĮåĽ½": 2404,
      "èĢĲç£¨": 2405,
      "éģĩåĪ°": 2406,
      "å¡ĳ": 2407,
      "æ¼Ķ": 2408,
      "ç¢į": 2409,
      "åħīè§£": 2410,
      "éĩįçĤ¹å®ŀéªĮå®¤": 2411,
      "çĶŁæĢģæĸĩæĺİå»ºè®¾": 2412,
      "çĭ¬çī¹": 2413,
      "ç«ŀäºīåĬĽ": 2414,
      "æ½®": 2415,
      "åİĭåĬĽ": 2416,
      "åľºæ¯ĶèµĽä¸Ń": 2417,
      "ç»¿èī²åıĳå±ķ": 2418,
      "ä¸ĢçĶŁæľīä½ł": 2419,
      "æĢİæł·": 2420,
      "åĪ¶èį¯åºŁæ°Ķ": 2421,
      "è¯¾ç¨ĭ": 2422,
      "æµĵåº¦": 2423,
      "éļĶçĥŃæĸŃæ¡¥": 2424,
      "å³°": 2425,
      "æ¦Ĥå¿µ": 2426,
      "äº¿åħĥ": 2427,
      "ä¸Ńåįİäººæ°ĳåħ±åĴĮåĽ½": 2428,
      "è´£ä»»": 2429,
      "ç¨ĭåº¦ä¸Ĭ": 2430,
      "éĿŀåħ¬æľīåĪ¶": 2431,
      "ç»§ç»Ń": 2432,
      "æľīåĪ©äºİ": 2433,
      "çĩĥ": 2434,
      "çĳ°": 2435,
      "ä¹Įåħĭåħ°": 2436,
      "å·¦åı³": 2437,
      "åĽ½åĬ¡éĻ¢": 2438,
      "é«ĺå¾·åº·": 2439,
      "éļĶçĥŃæĸŃæ¡¥éĵĿ": 2440,
      "\",": 2441,
      "%ãĢĤ": 2442,
      "25": 2443,
      "40": 2444,
      "400": 2445,
      "93": 2446,
      "OC": 2447,
      "UV": 2448,
      "VOC": 2449,
      "¢éĭ": 2450,
      "£çļĦ": 2451,
      "©æľº": 2452,
      "«çĳ°": 2453,
      "ºæĹĭ": 2454,
      "»çĤ¼": 2455,
      "¼æ²": 2456,
      "½æ¯Ľ": 2457,
      "æĳ": 2458,
      "ç¿": 2459,
      "èķ": 2460,
      "é²": 2461,
      "éİ": 2462,
      "ĥèĩ³": 2463,
      "ħéĢŁ": 2464,
      "ĸéł": 2465,
      "ľé£İ": 2466,
      "ľé¸Ł": 2467,
      "łåĢ": 2468,
      "ä¸¦": 2469,
      "ä¸´": 2470,
      "ä¸ĥ": 2471,
      "ä¸Ŀ": 2472,
      "ãĢĮ": 2473,
      "çļĦéĩį": 2474,
      "çļĦè¿Ĳ": 2475,
      "çļĦå¸ĪèĮĥå¤§åŃ¦": 2476,
      "çļĦå·¥ä½ľ": 2477,
      "çļĦè®¤": 2478,
      "çļĦè¦ģæ±Ĥ": 2479,
      "çļĦæĶ¶": 2480,
      "çļĦæĸ¹æ³ķ": 2481,
      "çļĦæ¸©åº¦": 2482,
      "çļĦåħ³éĶ®": 2483,
      "çļĦæ¦Ĥå¿µ": 2484,
      "äºĳ": 2485,
      "åħĦ": 2486,
      "ä»ĭ": 2487,
      "åı·": 2488,
      "åĪ»": 2489,
      "åĪĬ": 2490,
      "å®ģ": 2491,
      "è¿°": 2492,
      "è¿½": 2493,
      "è¿ħéĢŁ": 2494,
      "åľ³": 2495,
      "ç»į": 2496,
      "ç»ķ": 2497,
      "åŃ¦ä½į": 2498,
      "ä¸ĢæĹ": 2499,
      "ä¸Ģåľº": 2500,
      "ä¸Ģæµģ": 2501,
      "ä¸Ģéĥ¨åĪĨ": 2502,
      "ä¸Ģèµ·": 2503,
      "ä¸Ģå¼ł": 2504,
      "è®¿": 2505,
      "ä¹ħ": 2506,
      "ä¹İ": 2507,
      "ä¹ĥèĩ³": 2508,
      "æĺ¯ç©º": 2509,
      "æľīå¤ļ": 2510,
      "ä¸įè¿ĩ": 2511,
      "ä¸įä½İ": 2512,
      "ä¸įéģİ": 2513,
      "äººç¯®çĲĥ": 2514,
      "å¸Ń": 2515,
      "å¹ķ": 2516,
      "åľ¨è¿Ļ": 2517,
      "åľ¨æĬĢæľ¯": 2518,
      "çīĩ": 2519,
      "æĬĹ": 2520,
      "çĶŁçĲĨ": 2521,
      "çĶŁåĳ½": 2522,
      "æĢĴ": 2523,
      "æĹĹ": 2524,
      "è¯¯": 2525,
      "è¯º": 2526,
      "è¯į": 2527,
      "å¤§æľī": 2528,
      "å¤§åŀĭ": 2529,
      "å°¤": 2530,
      "å°ļ": 2531,
      "æłĳ": 2532,
      "å¾®": 2533,
      "å±Ī": 2534,
      "å±Ĭ": 2535,
      "äºĨä¸ĢäºĽ": 2536,
      "çİĭ": 2537,
      "çİ«çĳ°": 2538,
      "ä¸ºä»Ģä¹Ī": 2539,
      "è¡¡": 2540,
      "èµı": 2541,
      "èµŀ": 2542,
      "å¥ĩ": 2543,
      "å¯¦": 2544,
      "åĮĸçļĦ": 2545,
      "åıĳçİ°": 2546,
      "è´¥": 2547,
      "è´µ": 2548,
      "æİ¢": 2549,
      "åİħ": 2550,
      "åİĮ": 2551,
      "é¢ľ": 2552,
      "å½¼": 2553,
      "å½Ĵ": 2554,
      "ä¿±ä¹Ĳ": 2555,
      "æ³°": 2556,
      "çĽĸ": 2557,
      "çĽĽ": 2558,
      "çŃīçŃī": 2559,
      "çŃīä¼ģä¸ļ": 2560,
      "éĻĪ": 2561,
      "åĪ°äºĨ": 2562,
      "ä¸ĬäºĨ": 2563,
      "æĥĬ": 2564,
      "è¿ĽæŃ¥": 2565,
      "æĪĲäºº": 2566,
      "å¹´ä¸ŃåĽ½": 2567,
      "çİ°è±¡": 2568,
      "ä½ĵçİ°": 2569,
      "æ²ī": 2570,
      "å®ŀçĶ¨": 2571,
      "å®ŀåĬĽ": 2572,
      "æĿ¥è®²": 2573,
      "ä¸İåģ¥åº·äº§ä¸ļ": 2574,
      "åĪĨä¸º": 2575,
      "åĪĨç±»": 2576,
      "æĢ§è´¨": 2577,
      "è¡ĮåĬ¨": 2578,
      "è¡ĮæĶ¿": 2579,
      "æŃ¦": 2580,
      "è¿Ļæĺ¯": 2581,
      "è¿Ļä¹Ł": 2582,
      "ä½ľåĵģ": 2583,
      "ä¼ģä¸ļå®ŀçİ°": 2584,
      "ç§ĳæĻ®": 2585,
      "åģľ": 2586,
      "é¡º": 2587,
      "é¡¾": 2588,
      "é¡¿": 2589,
      "è¿ĩå¹´": 2590,
      "æģĲ": 2591,
      "æĸ¹ä½į": 2592,
      "æĸ¹ä¾¿": 2593,
      "ä»ĸåľ¨": 2594,
      "åĬĽçĶµåŃĲæĬĢæľ¯": 2595,
      "éĿ¢åĲĳ": 2596,
      "åºĶçº³": 2597,
      "åĳĪ": 2598,
      "æĬĢæľ¯ç®¡çĲĨ": 2599,
      "ä¸ĵå®¶": 2600,
      "ä¸ĵéĹ¨": 2601,
      "å¦»": 2602,
      "çĥ·": 2603,
      "åĲĪä¸Ģ": 2604,
      "è½¯": 2605,
      "æĸĩçī©": 2606,
      "éķĩ": 2607,
      "æľ¬æ¬¡": 2608,
      "æł¡ä¼ģ": 2609,
      "åĩºåħ¥": 2610,
      "ä¸»å¸Ń": 2611,
      "ç©¿": 2612,
      "éķ¿æ²Ļ": 2613,
      "ç«¥": 2614,
      "ç«Ł": 2615,
      "æı¡": 2616,
      "å°±åı¯ä»¥": 2617,
      "æĪĳä»¬çļĦ": 2618,
      "æ´¥": 2619,
      "æ´¾": 2620,
      "æį¢": 2621,
      "åħ¶å®ŀ": 2622,
      "åħ¶æ¬¡": 2623,
      "åĬłå¤§": 2624,
      "åĬłçĥŃ": 2625,
      "ç¾½æ¯Ľ": 2626,
      "èµĦæľ¬": 2627,
      "èĢĮæĪĲ": 2628,
      "èĢĮä¸Ķ": 2629,
      "çĶµå·¥": 2630,
      "çĶµæ°Ķ": 2631,
      "çĶµå½±": 2632,
      "çĶµåĬĽçĶµåŃĲæĬĢæľ¯": 2633,
      "çŁ³": 2634,
      "åħ·ä½ĵ": 2635,
      "æ°´è½¬åį°": 2636,
      "æ³ķäºº": 2637,
      "æ³ķå®ļ": 2638,
      "æľŁçļĦ": 2639,
      "ç¬¬ä¹Ŀ": 2640,
      "ä½¿å¾Ĺ": 2641,
      "ä½¿åĳ½": 2642,
      "åĨħéĥ¨": 2643,
      "åĨħæ¶µ": 2644,
      "çĽ¸å¯¹": 2645,
      "çĽ¸å½ĵ": 2646,
      "ä¸ĵä¸ļçļĦ": 2647,
      "ä¸ĵä¸ļåĪĨåĮħ": 2648,
      "éļľ": 2649,
      "å¦ĤæŃ¤": 2650,
      "ç³»åĪĹ": 2651,
      "è¿ĺè¦ģ": 2652,
      "æīįæĺ¯": 2653,
      "åĽ½å®¶åįļçī©é¦Ĩ": 2654,
      "åģ¥åº·åıĳå±ķ": 2655,
      "åģ¥åº·ä½ĵæ£Ģ": 2656,
      "åģ¥åº·ç§ĳæĻ®": 2657,
      "å¾Īå¥½": 2658,
      "éĺ³": 2659,
      "éĺ¿": 2660,
      "éĺĶ": 2661,
      "éĥ½ä¼ļ": 2662,
      "æµģå¤±": 2663,
      "éĶ»çĤ¼": 2664,
      "æĺİäºĨ": 2665,
      "æĺİæĸ¯": 2666,
      "ä¸īäººç¯®çĲĥ": 2667,
      "éģĵå¾·": 2668,
      "éģĵè·¯": 2669,
      "å¤Ħäºİ": 2670,
      "å¸ĪèĮĥå¤§åŃ¦ä¸İ": 2671,
      "åħ±è¯Ĩ": 2672,
      "æ°ĳèĪª": 2673,
      "å¿ĥçĲĨåŃ¦": 2674,
      "å¿ĥçĲĨçī¹çĤ¹": 2675,
      "å¿ĥçĲĨåĵģè´¨": 2676,
      "è£¡": 2677,
      "æľĢé«ĺ": 2678,
      "æľĢå¥½": 2679,
      "æľĢåĲİ": 2680,
      "å·¥ä½ľçļĦé«ĺ": 2681,
      "å¼ºçļĦ": 2682,
      "ç¤¾ä¼ļçļĦ": 2683,
      "ç¤¾ä¼ļåıĳå±ķ": 2684,
      "èĬ±": 2685,
      "æķĪæŀľ": 2686,
      "æķĪçĽĬ": 2687,
      "è¯´æĺİ": 2688,
      "è¯´éģĵ": 2689,
      "åŁ¹èĤ²": 2690,
      "æŃ£åľ¨": 2691,
      "ç»ĵæĿŁ": 2692,
      "å·²åįĸ": 2693,
      "æĻºåĬĽ": 2694,
      "éĴĪ": 2695,
      "éĴŁ": 2696,
      "åĮħåĲ«": 2697,
      "2017": 2698,
      "æ¡©æľº": 2699,
      "èĥ¶": 2700,
      "äºĮæ°¯": 2701,
      "æķ´çĲĨ": 2702,
      "åĽĽå¤§": 2703,
      "ä¹łè¿ĳ": 2704,
      "ä¹łæĥ¯": 2705,
      "è¥¿äºļ": 2706,
      "å®īè£ħ": 2707,
      "å®īæħ": 2708,
      "åŃ¦æł¡çļĦ": 2709,
      "åŃ¦æł¡çİ°æľī": 2710,
      "æĸĻåİĤ": 2711,
      "åįģäºĮ": 2712,
      "æĢĿç»´": 2713,
      "æĢĿä¸»ä¹ī": 2714,
      "è£ħå¤ĩ": 2715,
      "åĲĦé¡¹": 2716,
      "åĲĦç±»": 2717,
      "ç»ıæµİå¸¦": 2718,
      "åĳĺçļĦ": 2719,
      "çĻ»": 2720,
      "çĻľé£İ": 2721,
      "äºĶå¹´": 2722,
      "äºĶèķ": 2723,
      "æł¼æĿ¿": 2724,
      "çº¸åªĴ": 2725,
      "åģļåĪ°": 2726,
      "æĪ¿ä¸ľåĦ¿åŃĲ": 2727,
      "æ··": 2728,
      "è®°å½ķ": 2729,
      "æĸ¯æ³°": 2730,
      "éĢĤåĲĪ": 2731,
      "å¿«éĢŁ": 2732,
      "éĩĳé¢Ŀ": 2733,
      "åįĩçº§": 2734,
      "æİ¨è¿Ľ": 2735,
      "åŁºç¡Ģä¸Ĭ": 2736,
      "åŁºç¡ĢåŃ¦ç§ĳ": 2737,
      "å±ŀæĢ§": 2738,
      "ä¿ĿæĮģ": 2739,
      "å§Ĩ": 2740,
      "ä¸ĸçºª": 2741,
      "éħ¸": 2742,
      "ä¸ĩäºº": 2743,
      "äº¤æµģ": 2744,
      "ä¼łå¯¼": 2745,
      "éĩĩåıĸ": 2746,
      "æ¯ıå¤©": 2747,
      "æľªæĿ¥çļĦ": 2748,
      "ä¼ĺåĮĸ": 2749,
      "ä¼ĺç§Ģ": 2750,
      "æĢ»ä½ĵ": 2751,
      "éĿĴå°ĳ": 2752,
      "æ³¢å£«": 2753,
      "æİ¥è§¦": 2754,
      "èĹıåĵģèµĦæºĲ": 2755,
      "èĦĳ": 2756,
      "æĺ¾çİ°": 2757,
      "æīĭæľº": 2758,
      "å¿ħè¦ģ": 2759,
      "èīºæľ¯åĵģ": 2760,
      "æĤ£": 2761,
      "å®¢äºº": 2762,
      "å®¢æĪ·": 2763,
      "èµ°åĲĳ": 2764,
      "èĢģæĿ¿": 2765,
      "æĻºæħ§å®ŀéªĮå®¤": 2766,
      "æ·±åľ³": 2767,
      "èªį": 2768,
      "èªŀ": 2769,
      "åĽ´ç»ķ": 2770,
      "æĬ¥åĳĬ": 2771,
      "çī¹èī²ä¸ĵä¸ļ": 2772,
      "ä¾Ŀæį®": 2773,
      "çŁ¥è¯ĨåĴĮ": 2774,
      "åı¥åŃĲ": 2775,
      "åı¥ç»ıåħ¸": 2776,
      "å¥¥è¥¿äºļ": 2777,
      "ä¼ģä¸ļçļĦä¿¡æģ¯åĮĸ": 2778,
      "ç¡®å®ļ": 2779,
      "æ¢¦æĥ³": 2780,
      "å®ĮåĸĦ": 2781,
      "è´Ńä¹°": 2782,
      "è®¡ç®Ĺæľºè¾ħåĬ©": 2783,
      "äº«åıĹ": 2784,
      "éĢĻæľ¬æĽ¸": 2785,
      "æĿ¿åĿĹ": 2786,
      "å¥¹çļĦ": 2787,
      "éĻĦè¿ĳ": 2788,
      "æĭĽæłĩ": 2789,
      "æĭĽèģĺ": 2790,
      "æĥħåĨµä¸ĭ": 2791,
      "å²¸": 2792,
      "ä»Ĭå¹´": 2793,
      "åĬŀåħ¬": 2794,
      "æŀĦå»º": 2795,
      "å¨ĩ": 2796,
      "èŀºæĹĭ": 2797,
      "æĸ½ä»¥": 2798,
      "åĮĹäº¬æ¡©æľº": 2799,
      "æķ°åŃĹåĮĸè®¾è®¡ä¸İåĪ¶éĢł": 2800,
      "æļĤ": 2801,
      "åĮ»èį¯": 2802,
      "åĮ»çĸĹ": 2803,
      "çĶŁæĢģæĸĩæĺİå»ºè®¾çļĦ": 2804,
      "æ³¢ç½ĹçĶ³": 2805,
      "åĤ²": 2806,
      "åĻª": 2807,
      "åħ«åı¥ç»ıåħ¸": 2808,
      "åĲĥé¥": 2809,
      "éĴ¢æł¼æĿ¿": 2810,
      "èĦ±èĩŃ": 2811,
      "æ»¡è¶³": 2812,
      "èıľé¸Ł": 2813,
      "åĪ¤æĸŃ": 2814,
      "è¿ŀæ±ł": 2815,
      "æ±īè¯Ńè¨ĢæĸĩåŃ¦": 2816,
      "è½»æĿ¾": 2817,
      "éķ¿æ±Łç»ıæµİå¸¦": 2818,
      "çĥŃè½¬åį°æĬĢæľ¯": 2819,
      "çľģå±ŀéĻ¢æł¡": 2820,
      "çĻ½çĻľé£İ": 2821,
      "å±Ĥæ¬¡çļĦ": 2822,
      "è¾ĵéĢģæľº": 2823,
      "çĶ³è¯·": 2824,
      "åľ°åĮºçļĦ": 2825,
      "ç¼ĸç¨ĭ": 2826,
      "äººæīįåŁ¹åħ»åĴĮ": 2827,
      "è´§çī©è¿Ĳè¾ĵ": 2828,
      "æģ¶èĩŃæ°Ķä½ĵ": 2829,
      "ä¼ĳéĹ²ä½ĵèĤ²": 2830,
      "è¿ľç¦»": 2831,
      "åĽ¾åĥı": 2832,
      "æł¹æį®": 2833,
      "å¯«ä½ľ": 2834,
      "åıĳèĤ²çĶŁçī©åŃ¦": 2835,
      "åĵªäºĽ": 2836,
      "å½¬å½¬": 2837,
      "åģ¥åº·æ£ĢæŁ¥äºº": 2838,
      "ç¬¬åĽĽè½®åŃ¦ç§ĳè¯Ħä¼°ç»ĵæŀľ": 2839,
      "å©ļ": 2840,
      "çĵ·": 2841,
      "å®£ä¼ł": 2842,
      "çĶ°å¾Ħ": 2843,
      "åĬ³åĬ¡": 2844,
      "å·´ç»ĵ": 2845,
      "è¯ļä¿¡": 2846,
      "åĽ½åĨħå¤ĸ": 2847,
      "ä¸ºä¸»ä½ĵçļĦ": 2848,
      "ç¦ıå»º": 2849,
      "åıĸå¾ĹäºĨ": 2850,
      "èĻļå¼Ģå¢ŀåĢ¼ç¨İä¸ĵçĶ¨åıĳç¥¨": 2851,
      "Dæīĵåį°è®¾å¤ĩ": 2852,
      "å®ĺæĸ¹": 2853,
      "åį±å®³": 2854,
      "æĿĤå¿Ĺ": 2855,
      "æ¬¢è¿İ": 2856,
      "äºĶå¤§è¿ŀæ±ł": 2857,
      "å¹¿ä¸ľçľģ": 2858,
      "åįİä¸Ńå¸ĪèĮĥå¤§åŃ¦": 2859,
      "åı¦å¤ĸä¸Ģå®¶": 2860,
      "åħļçļĦåįģä¹Ŀå¤§ç²¾ç¥ŀ": 2861,
      "äººä¸İèĩªçĦ¶åĴĮè°Ĳåħ±çĶŁçļĦ": 2862,
      "é¤Ĳ": 2863,
      "çļĦæĹ¶åĢĻ": 2864,
      "ä¼Łå¤§": 2865,
      "æİªæĸ½": 2866,
      "è¶ĭåĬ¿": 2867,
      "ä¸ľåĮĹå¸ĪèĮĥå¤§åŃ¦": 2868,
      "åŃ¦ä¹łè´¯å½»åħļçļĦåįģä¹Ŀå¤§ç²¾ç¥ŀ": 2869,
      "é©¬åħĭæĢĿä¸»ä¹ī": 2870,
      "èĢĲç£¨æĢ§": 2871,
      "æ½®æµģ": 2872,
      "éĿŀåħ¬æľīåĪ¶ç»ıæµİäººå£«": 2873,
      "¢éĭ¼æ²": 2874,
      "éİ¢éĭ¼æ²": 2875,
      "ĸéłŃçļĦ": 2876,
      "łåĢĴ": 2877,
      "ä¸ĢæĹ¦": 2878,
      "ä¿±ä¹Ĳéĥ¨": 2879,
      "çŃīä¼ģä¸ļä¸ºä¸»ä½ĵçļĦ": 2880,
      "åºĶçº³ç¨İé¢Ŀ": 2881,
      "ç¾½æ¯ĽçĲĥ": 2882,
      "ä¹łè¿ĳå¹³": 2883,
      "å®īæħ°": 2884,
      "äºĶèķ´": 2885,
      "èŀºæĹĭè¾ĵéĢģæľº": 2886,
      "æ³¢ç½ĹçĶ³ç§ĳ": 2887,
      "éİ¢éĭ¼æ²ĸéłŃçļĦ": 2888,
      "\"ãĢĤ": 2889,
      "%,": 2890,
      "15": 2891,
      "22": 2892,
      "75": 2893,
      "95": 2894,
      ":ãĢĮ": 2895,
      "Aç±»": 2896,
      "cl": 2897,
      "ea": 2898,
      "¡è®®": 2899,
      "¢å¾Ĺ": 2900,
      "¨æł¼": 2901,
      "«å®¶": 2902,
      "°èĭ¦": 2903,
      "±¼": 2904,
      "¹ģ": 2905,
      "ºæ¿Ģ": 2906,
      "»ç": 2907,
      "¼åĲ": 2908,
      "¾äºĨ": 2909,
      "¿½": 2910,
      "¿çŃī": 2911,
      "åĺ": 2912,
      "åł": 2913,
      "æ¤": 2914,
      "æ©": 2915,
      "æĨ": 2916,
      "ç¹ģ": 2917,
      "èĨ": 2918,
      "èļ": 2919,
      "èĽ": 2920,
      "èŃ": 2921,
      "é±¼": 2922,
      "ï¿½": 2923,
      "Ġæº¶åīĤåºŁæ°Ķ": 2924,
      "ģå¸ĥ": 2925,
      "ģåĪ¤": 2926,
      "ĦåĤ²": 2927,
      "ħæ¸¸": 2928,
      "ħç¡¬": 2929,
      "ĨèĪ¹": 2930,
      "ĭçĻ½": 2931,
      "ĭåıĭ": 2932,
      "ĮæĢ§": 2933,
      "ĮæľĽ": 2934,
      "Ĳæ¸": 2935,
      "ĳæİ§": 2936,
      "Ĵĥ": 2937,
      "ĴçĿĢ": 2938,
      "ĺçļĦ": 2939,
      "ĺæī¬": 2940,
      "ĿåĪ¶": 2941,
      "łåĪ¶åº¦": 2942,
      "ä¸°": 2943,
      "ä¸¹": 2944,
      "ä¸¾": 2945,
      "çļĨ": 2946,
      "çļĦä¸Ģ": 2947,
      "çļĦèĩª": 2948,
      "çļĦè¿ĩ": 2949,
      "çļĦå¸ĪèĮĥ": 2950,
      "çļĦåĲİ": 2951,
      "çļĦç¤¾ä¼ļ": 2952,
      "çļĦä¸Ģä¸ª": 2953,
      "çļĦä»·": 2954,
      "çļĦèĹıåĵģ": 2955,
      "çļĦåŃ¦ä¹ł": 2956,
      "çļĦæķ°åŃĹ": 2957,
      "çļĦç²¾ç¥ŀ": 2958,
      "çļĦæıĲåįĩ": 2959,
      "çļĦæķ´ä½ĵ": 2960,
      "çļĦéĹ¨ç¥¨": 2961,
      "çļĦåħ³æ³¨": 2962,
      "çļĦåħ³ç³»": 2963,
      "çļĦå·¥ç¨ĭæĬĢæľ¯": 2964,
      "çļĦçĬ¶æĢģ": 2965,
      "çļĦåŁºæľ¬": 2966,
      "çļĦåħ¬åħ±": 2967,
      "çļĦè¡¨çİ°": 2968,
      "çļĦç¾İå¥½": 2969,
      "çļĦåĮºåŁŁ": 2970,
      "çļĦä¹łæĥ¯": 2971,
      "çļĦéĩĳé¢Ŀ": 2972,
      "çļĦçī¹èī²ä¸ĵä¸ļ": 2973,
      "æľ«": 2974,
      "æľĭåıĭ": 2975,
      "å¤ı": 2976,
      "ä»į": 2977,
      "ä»ĺ": 2978,
      "åı¤": 2979,
      "åĪĳ": 2980,
      "åĪºæ¿Ģ": 2981,
      "å®Ī": 2982,
      "è¿Ŀ": 2983,
      "çĶ»": 2984,
      "æĺŁ": 2985,
      "åľŁ": 2986,
      "ä¼Ĭ": 2987,
      "åĲī": 2988,
      "åŃ¦ä¸ļ": 2989,
      "åŃ¦åĴĮ": 2990,
      "åŃ¦ä¸İ": 2991,
      "ä¸ĢçĤ¹": 2992,
      "ä¸Ģå¤©": 2993,
      "ä¸Ģç©º": 2994,
      "ä¸Ģçº§åŃ¦ç§ĳ": 2995,
      "ä¸Ģéłģ": 2996,
      "ä¸Ģå¥Ĺ": 2997,
      "ä¸Ģå°ıæĹ¶": 2998,
      "ä¸Ģä¸Ŀ": 2999,
      "è®¢": 3000,
      "è®¨": 3001,
      "åį·": 3002,
      "åįĥ": 3003,
      "åįĳ": 3004,
      "æĺ¯åľ¨": 3005,
      "æĺ¯ä¸º": 3006,
      "æĺ¯æĹł": 3007,
      "æĺ¯åħ·æľī": 3008,
      "æĺ¯æĮĩ": 3009,
      "æĺ¯ä¸Ģç§į": 3010,
      "æĺ¯å·¥åķĨèģĶ": 3011,
      "æľīäºº": 3012,
      "æľīäºĨ": 3013,
      "æľīå¾Īå¤ļ": 3014,
      "æľīéĻĲ": 3015,
      "æľīèī¯å¥½çļĦ": 3016,
      "ä¸ļèģĶåĲĪ": 3017,
      "æķ¬": 3018,
      "ä¸įçĶ¨": 3019,
      "ä¸įåĪ°": 3020,
      "ä¸įåı¯": 3021,
      "ä¸įæĥ³": 3022,
      "ä¸įèµ·": 3023,
      "ä¸įæĺĵ": 3024,
      "ä¸įåĨį": 3025,
      "ä¸įæĦ¿": 3026,
      "ä¸įçŁ¥éģĵ": 3027,
      "ä¸ŃåŃĺåľ¨": 3028,
      "äººæĸĩ": 3029,
      "äººéĢī": 3030,
      "äººåı£": 3031,
      "äººæ¢¦è§ģä¸¤ä¸ªå°ıå¥³åŃ©": 3032,
      "å¸«": 3033,
      "å¸ĨèĪ¹": 3034,
      "å¸ĮæľĽ": 3035,
      "åľ¨å®¶": 3036,
      "åľ¨æĪĳ": 3037,
      "åľ¨ä¸ŃåĽ½": 3038,
      "åľ¨åĨħ": 3039,
      "åľ¨ç½ĳ": 3040,
      "åľ¨è¿Ļä¸ª": 3041,
      "æĢĸ": 3042,
      "æĹħæ¸¸": 3043,
      "åĴĮä¸Ģå®ļçļĦ": 3044,
      "åĴĮåħ¶ä»ĸ": 3045,
      "åĴĮç½ĳç»ľæĬĢæľ¯": 3046,
      "è¯¢": 3047,
      "è¯ķ": 3048,
      "éĢĨ": 3049,
      "éĢĶ": 3050,
      "éĢĲæ¸": 3051,
      "å¤§å¤§": 3052,
      "å¤§å®¶": 3053,
      "å¤§éĩı": 3054,
      "å¤§ä¼Ĺ": 3055,
      "å¤§æķ°æį®": 3056,
      "ç§»": 3057,
      "å¿Ļ": 3058,
      "å¾ª": 3059,
      "å¾ŀ": 3060,
      "äºĨåĽĽ": 3061,
      "å¼ĥ": 3062,
      "å¼ĺæī¬": 3063,
      "çĲĨæĥ³": 3064,
      "çĲĨè§£": 3065,
      "çİ»ç": 3066,
      "è¦ģåħ·å¤ĩ": 3067,
      "ä¸ºä½ķ": 3068,
      "ä¸ºæĮĩå¯¼": 3069,
      "è¡¥": 3070,
      "çŃ¹": 3071,
      "èµ¢å¾Ĺ": 3072,
      "å¥ı": 3073,
      "èĥ½ä¸įèĥ½": 3074,
      "åĮĸè§£": 3075,
      "ä¸ªä½ĵ": 3076,
      "ä¸ªçĲĥ": 3077,
      "ä»¥ä¸ĭ": 3078,
      "ä»¥åīį": 3079,
      "ä»¥æ¹ĸåĮĹ": 3080,
      "åıĳè¾¾": 3081,
      "è´ª": 3082,
      "è´´": 3083,
      "å·¥èµĦ": 3084,
      "å·¥ç§į": 3085,
      "ä¼ļåĳĺ": 3086,
      "æİĮ": 3087,
      "å®¶åĴĮ": 3088,
      "å®¶å±ŀ": 3089,
      "çº¯": 3090,
      "çºł": 3091,
      "åĩ¡": 3092,
      "é¢łåĢĴ": 3093,
      "é¢¨æł¼": 3094,
      "é¢ģå¸ĥ": 3095,
      "çĶ¨äºĨ": 3096,
      "ä¿Ĺ": 3097,
      "æ³Ľ": 3098,
      "çĽĳæİ§": 3099,
      "å¤ļäºº": 3100,
      "å¤ļæł·": 3101,
      "å¤ļå°ĳ": 3102,
      "çŃīè¾ĥ": 3103,
      "çŃīèģĮä¸ļ": 3104,
      "çŃīé¡¹çĽ®": 3105,
      "çŃīé¢ĨåŁŁ": 3106,
      "çŃīå¤ļä¸ª": 3107,
      "åĪ°çļĦ": 3108,
      "å¿ĥçģµ": 3109,
      "ä¸ĬéĿ¢": 3110,
      "æĥ§": 3111,
      "è¿Ľåİ»": 3112,
      "æĪĲåĪĨ": 3113,
      "æĪĲæľ¬": 3114,
      "æĪĲéĥ½": 3115,
      "å¹´é¢ģå¸ĥ": 3116,
      "ä½ĵä¼ļ": 3117,
      "ä½ĵæĢ§": 3118,
      "ä½ĵåħļåĳĺ": 3119,
      "æµ®": 3120,
      "èĩªåľ¨": 3121,
      "èĩªæĪĳ": 3122,
      "èĩªåįĳ": 3123,
      "è®¾ç«ĭ": 3124,
      "è®¾ç½®": 3125,
      "æĿ¥ä¹ĭ": 3126,
      "ä¸İè®¾è®¡": 3127,
      "ä¸İåºĶçĶ¨": 3128,
      "ä¸İåĨ³çŃĸ": 3129,
      "ä¸İç»´æĬ¤": 3130,
      "ä¸İè®¡ç®ĹæľºæĬĢæľ¯": 3131,
      "åĪĨè§£": 3132,
      "åĪĨéĴŁ": 3133,
      "æĢ§çļĦ": 3134,
      "æĢ§é¡¹çĽ®": 3135,
      "æ¯«": 3136,
      "æŃ¢": 3137,
      "è¿Ļåĩłå¤©": 3138,
      "é«ĺåº¦": 3139,
      "é«ĺçº§": 3140,
      "èī°èĭ¦": 3141,
      "âĢĿãĢĤ": 3142,
      "åģ·": 3143,
      "ç»ıéĶĢ": 3144,
      "ç»ıåİĨ": 3145,
      "æķ°éĩı": 3146,
      "æĹ¶å°ļ": 3147,
      "å¯¹æľī": 3148,
      "æĸ¹éĴĪ": 3149,
      "ç®±": 3150,
      "å»ºè®®": 3151,
      "å»ºçŃĳ": 3152,
      "åĬĽäºİ": 3153,
      "éĿ¢å¯¹": 3154,
      "éĿ¢ç§¯": 3155,
      "éĿ¢ä¸´": 3156,
      "éģµ": 3157,
      "éģ¿": 3158,
      "éģį": 3159,
      "éģľ": 3160,
      "éģŃ": 3161,
      "åºĶåķĨ": 3162,
      "åºĶèģĺ": 3163,
      "å¸ĪåħĦ": 3164,
      "ä¹Łèĥ½": 3165,
      "ä¹Łä¼ļ": 3166,
      "ä¹Łä¸įæĺ¯": 3167,
      "ä¸ŃåĽ½çļĦåįļçī©é¦Ĩ": 3168,
      "æľºåºĬ": 3169,
      "æľºä¸Ģå°ıæĹ¶": 3170,
      "åĢ¡è®®": 3171,
      "æĬĢæľ¯åºĶçĶ¨": 3172,
      "åħ¨æ°ĳ": 3173,
      "åħ¨æĸ¹ä½į": 3174,
      "åħ¨ä½ĵåħļåĳĺ": 3175,
      "åĪ¶ä½ľ": 3176,
      "ä¿¡å¿ĥ": 3177,
      "ä¿¡èµĸ": 3178,
      "ä¿¡è®°å½ķ": 3179,
      "å¦ĩ": 3180,
      "çĥĺ": 3181,
      "çĥŁ": 3182,
      "åĲĪçĲĨ": 3183,
      "åĲĪéĩĳ": 3184,
      "æĭ¼": 3185,
      "è½½": 3186,
      "æĸĩåŃĹ": 3187,
      "æĸĩåŃ¸": 3188,
      "å¼Ģåħ·": 3189,
      "å¼ĢåĲ¯": 3190,
      "å¼Ģå¹ķ": 3191,
      "ç¬Ķ": 3192,
      "åĽłç¼ĺ": 3193,
      "åĩºåĲįçļĦ": 3194,
      "åī§": 3195,
      "åī¯": 3196,
      "ä¸»é¢ĺ": 3197,
      "ä¾£": 3198,
      "åħ¬ç«ĭ": 3199,
      "åħ¬éĩĮ": 3200,
      "ç«łåĪ¶åº¦": 3201,
      "åŃ¦çĶŁèĥ½åľ¨": 3202,
      "æıı": 3203,
      "åľ°æĸ¹": 3204,
      "åľ°ä½į": 3205,
      "åĲĮæł·": 3206,
      "åĲĮä¼´": 3207,
      "æĪĳä»¬åľ¨": 3208,
      "æĪĳä»¬è¦ģ": 3209,
      "æĪĳä»¬ä¹Ł": 3210,
      "æĪĳä»¬å¿ħé¡»": 3211,
      "æ´²": 3212,
      "æ´Ľ": 3213,
      "æį·": 3214,
      "åħ¶ä¸ŃçļĦ": 3215,
      "åķĬ": 3216,
      "åķı": 3217,
      "æĻļ": 3218,
      "åĬłåħ¥": 3219,
      "åľºæ¬¡": 3220,
      "æĹłæľī": 3221,
      "æĹłè®º": 3222,
      "æĹłæĮĤ": 3223,
      "çķ¶": 3224,
      "çķı": 3225,
      "çķ«å®¶": 3226,
      "æĽ´å®¹æĺĵ": 3227,
      "èµĦéĩĳ": 3228,
      "èĢĮæĺ¯": 3229,
      "èĢĮä¸įæĺ¯": 3230,
      "çĶµè¯Ŀ": 3231,
      "æīĢæľī": 3232,
      "ç±į": 3233,
      "åıĬçłĶç©¶": 3234,
      "æ³ķå¾ĭ": 3235,
      "æĸ°éĹ»": 3236,
      "æĸ°ä¸ĸçºª": 3237,
      "æľŁåĪĬ": 3238,
      "åħ³äºİ": 3239,
      "åħ³æľºä¸Ģå°ıæĹ¶": 3240,
      "ä¿¡æģ¯æĬĢæľ¯": 3241,
      "åĨħå¿ĥ": 3242,
      "çĽ¸æ¯Ķ": 3243,
      "çĽ¸å®¹": 3244,
      "åķĨåĵģ": 3245,
      "ä¸ĭä¸Ģ": 3246,
      "ä¸ĭæĿ¥": 3247,
      "ä¸ĭéĿ¢": 3248,
      "åº¦åĴĮ": 3249,
      "æĦıä¹ī": 3250,
      "æĦıå¿Ĺ": 3251,
      "å¦Ĥä¸ĭ": 3252,
      "çĥŃéĩı": 3253,
      "è¿ĲåĬ¿": 3254,
      "è¿ĺæ²¡æľī": 3255,
      "ä¹ĭå¤§": 3256,
      "å¹³åįļ": 3257,
      "å»ºè®¾é«ĺæł¡": 3258,
      "è¡¨çİĩ": 3259,
      "å½ĵæľŁ": 3260,
      "åģ¥åº·ä¸ŃåĽ½": 3261,
      "åģ¥åº·æĪĲéķ¿": 3262,
      "åĿĲ": 3263,
      "ä»£çĲĨ": 3264,
      "å¾Īå¤§": 3265,
      "å¾Īå¿«": 3266,
      "å¾Īéļ¾": 3267,
      "ç¾İçļĦ": 3268,
      "ç¾İåĽ½": 3269,
      "ç¾İåħ¨éĿ¢": 3270,
      "ç®¡çĲĨå·¥ä½ľ": 3271,
      "ç®¡çĲĨä¸İåĨ³çŃĸ": 3272,
      "éĺµ": 3273,
      "éĺ¶": 3274,
      "äºĭå®ŀ": 3275,
      "æµģåĬ¨": 3276,
      "éĶģ": 3277,
      "èī²å½©": 3278,
      "æķĻèĤ²æ°´å¹³": 3279,
      "çĦ¡": 3280,
      "ä¸īä¸ĸ": 3281,
      "éĹ¨é¡¹çĽ®": 3282,
      "çľģçļĦ": 3283,
      "éģĵçļĦ": 3284,
      "éªĹ": 3285,
      "éªĦåĤ²": 3286,
      "å°Ĩè¿Ľä¸ĢæŃ¥": 3287,
      "éĹ´æŃĩ": 3288,
      "ç´«": 3289,
      "ç´ħç¡¬": 3290,
      "å¤©çĮ": 3291,
      "å¤©æ´¥": 3292,
      "ç©ºä½į": 3293,
      "ç©ºéĹ´": 3294,
      "åħ±å»º": 3295,
      "å¿ĥçĲĨçļĦåŃ¦çĶŁ": 3296,
      "æ²¡æľīä»Ģä¹Ī": 3297,
      "è£ķ": 3298,
      "è£ģåĪ¤": 3299,
      "æľĢè¿ĳ": 3300,
      "æľĢéĩįè¦ģ": 3301,
      "åİ»å¹´": 3302,
      "èĩªå·±åľ¨": 3303,
      "è§Ħæ¨¡": 3304,
      "è§Ħå¾ĭ": 3305,
      "è§Ħç«łåĪ¶åº¦": 3306,
      "çº§å·¥ç¨ĭæĬĢæľ¯": 3307,
      "åıªèĥ½": 3308,
      "ä¸Ģä¸ªæľĪ": 3309,
      "åı¯ä»¥éĢļè¿ĩ": 3310,
      "å¢ŀåĬł": 3311,
      "çĦ¶èĢĮ": 3312,
      "æİĴé£İ": 3313,
      "çłģ": 3314,
      "ãĢĭ,": 3315,
      "æŃ£æĸ°": 3316,
      "æŃ£å¸¸": 3317,
      "åĢ¼å¾Ĺ": 3318,
      "è½¬åĮĸ": 3319,
      "å¹¶æ²¡æľī": 3320,
      "è§ģè¿ĩ": 3321,
      "ç¤ºèĮĥ": 3322,
      "ç¼©": 3323,
      "ç¼ĿåĪ¶": 3324,
      "æĪĸåľ¨æĬĢæľ¯": 3325,
      "åĮħè£": 3326,
      "çľĭè§ģ": 3327,
      "èĭ¯": 3328,
      "åį°æŁĵ": 3329,
      "æĹ¥å¸¸": 3330,
      "æĹ¥çĽĬ": 3331,
      "éĢļå¸¸": 3332,
      "æ¶ĪèĢĹ": 3333,
      "2022": 3334,
      "ä½İäºİ": 3335,
      "æīĵçĶµè¯Ŀ": 3336,
      "èĥĨ": 3337,
      "åıĹåĪ°": 3338,
      "è®©æĪĳä»¬": 3339,
      "åŁ¹åħ»å¾·": 3340,
      "åŁ¹åħ»çļĦåŃ¦çĶŁ": 3341,
      "éĽ·": 3342,
      "ç§ŁæĪ¿": 3343,
      "ç§Łåĩºåİ»": 3344,
      "æĶ¾å¼ĥ": 3345,
      "ä¸¤å¹´": 3346,
      "ä¸¤å¤©": 3347,
      "åŃ¦æł¡æķĻåŃ¦è´¨éĩı": 3348,
      "åįģä¸Ģ": 3349,
      "åįģå¹´": 3350,
      "åįģåĽĽ": 3351,
      "åİŁçĲĨ": 3352,
      "åİŁæĿ¥": 3353,
      "åİŁæľ¬": 3354,
      "åİŁåĪĻ": 3355,
      "éľĢè¦ģäºĨè§£": 3356,
      "æ¹ĺ": 3357,
      "çĶŁäº§çİ°åľº": 3358,
      "çĶŁäº§æĬĢæľ¯ç®¡çĲĨ": 3359,
      "åĨ³è®®": 3360,
      "ç»ıæµİåĴĮ": 3361,
      "ç»ıæµİæĮĩæłĩ": 3362,
      "èº«ä½ĵ": 3363,
      "èº«è¾": 3364,
      "çĻ¼": 3365,
      "åı¸çĻ»": 3366,
      "åıĺéĿ©": 3367,
      "å¸¦æľī": 3368,
      "å¸¦å¤´": 3369,
      "çİ¯èĬĤ": 3370,
      "äº§åĵģåĪ¶éĢł": 3371,
      "äº§åĵģè®¾è®¡ä¸İåĪ¶éĢł": 3372,
      "éĥ¨åĪĨä¸º": 3373,
      "æĪ¿ä¸ľäººåĵģ": 3374,
      "ç³»ç»Łè®¾è®¡": 3375,
      "ç³»ç»Łè¿Ĳè¡Į": 3376,
      "ç³»ç»ŁåĪĨæŀĲ": 3377,
      "éĤ®": 3378,
      "éĤĦ": 3379,
      "ä¹¦ä¸Ń": 3380,
      "ä¹¦è®°": 3381,
      "è¯Ħçº§åŃ¦ç§ĳ": 3382,
      "å¼ıåıĳå±ķ": 3383,
      "éĩĳèŀį": 3384,
      "è¦ģæ±ĤçļĦ": 3385,
      "è¦ģæ±ĤåŃ¦çĶŁèĥ½åľ¨": 3386,
      "åı¯èĥ½æĢ§": 3387,
      "æķ°æį®æĺ¾ç¤º": 3388,
      "åį³åı¯": 3389,
      "åį³å°Ĩ": 3390,
      "éĢģè´§": 3391,
      "åŁºç¡ĢåĴĮä¸Ģå®ļçļĦ": 3392,
      "é»İ": 3393,
      "å±ŀçļĦ": 3394,
      "ä¿Ŀæ¸©": 3395,
      "ä¿Ŀéļľ": 3396,
      "å¢ĥåĨħ": 3397,
      "æºĲå¸Ĥ": 3398,
      "èį£": 3399,
      "ç½ĳç»ľæĪĲçĺ": 3400,
      "éħ¯": 3401,
      "ä¸ĩå¼ł": 3402,
      "äº¤éĢļ": 3403,
      "äº¤æĺĵ": 3404,
      "åħĥçļĦ": 3405,
      "çĶŁæ´»ä¸Ń": 3406,
      "è¯¥é¡¹": 3407,
      "ä»¥åıĬåľ¨": 3408,
      "æ¯ıä¸ª": 3409,
      "æ¯ıå¹´": 3410,
      "æ¯ıæ¬¡": 3411,
      "éĵ¾": 3412,
      "åĽŀåĪ°": 3413,
      "åĽŀæĶ¶": 3414,
      "ä¼ĺåĬ¿": 3415,
      "æĢ»ç»Ł": 3416,
      "éĿĴå±±": 3417,
      "æ³¢åı¸çĻ»": 3418,
      "è®¡ç®Ĺç¨İæ¬¾æįŁå¤±": 3419,
      "ä¸»è¦ģåŁ¹åħ»åŃ¦çĶŁ": 3420,
      "ä¸»è¦ģç»ıæµİæĮĩæłĩ": 3421,
      "çĬ¯": 3422,
      "åħĪåĲİ": 3423,
      "å¹¿é¢ĨåŁŁ": 3424,
      "è¿ĩç¨ĭæİ§åĪ¶": 3425,
      "ä»ĸä»¬çĪ¶åŃĲ": 3426,
      "ä¾ĽåºĶåķĨ": 3427,
      "åħ¬åı¸çļĦ": 3428,
      "è¶Ĭå¼ıåıĳå±ķ": 3429,
      "èĦ¸": 3430,
      "æĺ¾èĳĹ": 3431,
      "åįķä¸Ģ": 3432,
      "çİĩä¸º": 3433,
      "é¢ĦåĳĬ": 3434,
      "æ³¨éĩį": 3435,
      "æ³¨åĨĮ": 3436,
      "åĳĬçŁ¥": 3437,
      "åĳĬåĪ«": 3438,
      "çłĶç©¶åŁºåľ°": 3439,
      "çģŃ": 3440,
      "åįİä¸ľ": 3441,
      "å¼ķè¿Ľ": 3442,
      "èĢĥæł¸": 3443,
      "èĢĥèĻĳ": 3444,
      "æķ°æİ§è®¾å¤ĩçļĦ": 3445,
      "æķ°æİ§æĬĢæľ¯ä¸ĵä¸ļ": 3446,
      "æķ°æİ§ç¼ĸç¨ĭ": 3447,
      "æķ°æİ§æľºåºĬ": 3448,
      "æĸĩåĮĸçļĦ": 3449,
      "å¦ĤæŀľåŃ©åŃĲ": 3450,
      "å®ĥä»¬": 3451,
      "å®ĥæķ°æİ§è®¾å¤ĩçļĦ": 3452,
      "æ°´å¹³åĴĮ": 3453,
      "éļıåĲİ": 3454,
      "éļıæĦı": 3455,
      "åĶ®ç¥¨": 3456,
      "é¥®": 3457,
      "åĽ¢ç»ĵ": 3458,
      "æĶ¹åıĺ": 3459,
      "æĶ¹åĸĦ": 3460,
      "çī¹çĤ¹çļĦçī¹èī²ä¸ĵä¸ļ": 3461,
      "ä¾ĿèĪ¬èĭ¥æ³¢ç½Ĺèľľå¤ļ": 3462,
      "åĿĩåı¯": 3463,
      "åıĤè§Ĥ": 3464,
      "æī¿åĮħ": 3465,
      "æī¿è¯º": 3466,
      "å°±æĺ¯çİ«çĳ°": 3467,
      "ç¡®å®ŀ": 3468,
      "çĪ¶äº²": 3469,
      "éĤ£äºĽ": 3470,
      "è©ķ": 3471,
      "å®ĮäºĨ": 3472,
      "å®ĮæĪĲ": 3473,
      "ä¹Ĳæ±Ł": 3474,
      "åºĹéĹ¨": 3475,
      "èĩŃæ°§": 3476,
      "å¼Ģåıĳå·¥ä½ľ": 3477,
      "å¼ĢåıĳåıĬçłĶç©¶": 3478,
      "ç¾İä¸½ä¸ĸçķĮ": 3479,
      "éĺ²èħĲ": 3480,
      "å½¢æĪĲäºĨ": 3481,
      "è®¡ç®Ĺæľºç½ĳç»ľæĬĢæľ¯": 3482,
      "æľºæ¢°äº§åĵģè®¾è®¡ä¸İåĪ¶éĢł": 3483,
      "åªļ": 3484,
      "éĨĴ": 3485,
      "åĪĿä¸Ģ": 3486,
      "ä¸ĢèĪ¬çº³ç¨İäºº": 3487,
      "ä¸ĢèĪ¬æĥħåĨµä¸ĭ": 3488,
      "æĭĽåķĨ": 3489,
      "ä»İäºĭæķ°æİ§åĬłå·¥": 3490,
      "ä»İäºĭå·¥èīº": 3491,
      "ä»İäºĭäº§åĵģåĪ¶éĢł": 3492,
      "ä»İäºĭç³»ç»ŁåĪĨæŀĲ": 3493,
      "æİ§åĪ¶çĲĨè®º": 3494,
      "æ¹ĸåįĹçľģ": 3495,
      "æ¯ķä¸ļåŃ": 3496,
      "æ¿ĢåĬ±": 3497,
      "æ¿ĢçĥĪ": 3498,
      "ä»Ĭå¤©": 3499,
      "åĲ¸å¼ķ": 3500,
      "ä¸Ńå¿ĥçļĦ": 3501,
      "ä¸Ńå¿ĥåıĬåħ¶": 3502,
      "æĹ©å·²åįĸ": 3503,
      "éĢĢç¨İ": 3504,
      "éĢĢæİī": 3505,
      "çĲĨè®ºçŁ¥è¯ĨåĴĮ": 3506,
      "å·¥åķĨä¸ļèģĶåĲĪ": 3507,
      "èĩªåĬ¨æ£Ģæµĭä¸İ": 3508,
      "å¾Īå¤ļäºº": 3509,
      "æ´»åĬ¨çļĦ": 3510,
      "å¨ģ": 3511,
      "å¨±ä¹Ĳ": 3512,
      "åħħå®ŀ": 3513,
      "ä¼ĳæģ¯": 3514,
      "å°½éĩı": 3515,
      "åħ¬ä¼ĹçļĦ": 3516,
      "æķ°åŃĹåĮĸè½¬åŀĭ": 3517,
      "èİ·å¥ĸ": 3518,
      "å¡«": 3519,
      "å¡ŀ": 3520,
      "æ¼Ĩ": 3521,
      "æļĸ": 3522,
      "ç¢°": 3523,
      "æľīæķĪçļĦ": 3524,
      "å¾Ģå¾Ģ": 3525,
      "ä¿®åħ»": 3526,
      "ç§ĳæĬĢå¼ĢåıĳåıĬçłĶç©¶": 3527,
      "åįļçī©é¦ĨçļĦèĹıåĵģ": 3528,
      "éĹ¨ç¥¨éĶĢåĶ®": 3529,
      "è·¨è¶Ĭå¼ıåıĳå±ķ": 3530,
      "ç¼ºçĤ¹": 3531,
      "åıĮéĿŀ": 3532,
      "ä¸įæĸŃæıĲé«ĺ": 3533,
      "ä¸ªAçº§": 3534,
      "æ²³æºĲå¸Ĥ": 3535,
      "è¿ĲèĲ¥æ¨¡å¼ı": 3536,
      "ä¹ĭéĹ´çĽ¸": 3537,
      "è¡¨éĿ¢çļĦ": 3538,
      "ç¤¾ä¼ļä¸»ä¹īçİ°ä»£åĮĸ": 3539,
      "èĦ±ç¦»": 3540,
      "åĭĥ": 3541,
      "æĲŃ": 3542,
      "èı©": 3543,
      "éŁĮæĢ§": 3544,
      "ä»ªåĻ¨": 3545,
      "å®³æĢķ": 3546,
      "è¿ŀç»Ń": 3547,
      "å¯Įè£ķ": 3548,
      "æĮ¥åıĳ": 3549,
      "æ±īè¯Ńè¨Ģ": 3550,
      "éĥ¨éĹ¨ä»İäºĭå·¥èīº": 3551,
      "ä»·åĢ¼è§Ĥ": 3552,
      "è¿Ľé¡¹ç¨İé¢ĿæĬµæī£": 3553,
      "æ¹ĸåĮĹçľģ": 3554,
      "èĩªåĬ¨åĮĸä»ªè¡¨": 3555,
      "èĩªåĬ¨åĮĸå®īè£ħ": 3556,
      "çıŃç»Ħ": 3557,
      "1000": 3558,
      "ä½Ļä¸ĩ": 3559,
      "æĢİä¹Ī": 3560,
      "æĿĳæĮ¯": 3561,
      "ä¸ªäººå¾ģä¿¡": 3562,
      "è´¢å¯Į": 3563,
      "å·¥ä¸ļåºŁæ°Ķ": 3564,
      "å·¥ä¸ļè¿ĩç¨ĭæİ§åĪ¶": 3565,
      "åģĩæĹ¥": 3566,
      "å½ĵä»£ä¸ŃåĽ½": 3567,
      "æŁĶéģĵé¦Ĩ": 3568,
      "å·¥ç¨ĭæĬĢæľ¯åºĶçĶ¨åŀĭ": 3569,
      "æĮĩå¯¼ä¸ĭ": 3570,
      "æĸ¹éĿ¢çļĦçĲĨè®ºçŁ¥è¯ĨåĴĮ": 3571,
      "ç»´æĬ¤æĸ¹éĿ¢çļĦçĲĨè®ºçŁ¥è¯ĨåĴĮ": 3572,
      "åıįæĺłäºĨ": 3573,
      "è©©äºº": 3574,
      "æł¸å¿ĥç«ŀäºīåĬĽ": 3575,
      "ä¼ĳéĹ²åĬŁèĥ½": 3576,
      "é¾Ļå¤´": 3577,
      "éĸĭ": 3578,
      "éĸĵ": 3579,
      "å¾Įä¾Ĩ": 3580,
      "çŃīæĸ¹éĿ¢çļĦé«ĺçŃī": 3581,
      "çŃīæĸ¹éĿ¢å·¥ä½ľçļĦé«ĺ": 3582,
      "æĬĢèĥ½çī¹çĤ¹çļĦçī¹èī²ä¸ĵä¸ļ": 3583,
      "æĸ°æĹ¶ä»£ä¸ŃåĽ½çī¹èī²ç¤¾ä¼ļä¸»ä¹ī": 3584,
      "è¿ĲåĬ¨æİ§åĪ¶": 3585,
      "çĻ¾ç§ĳ": 3586,
      "è¶ħè¿ĩéĻķè¥¿": 3587,
      "æ¶Īæ³¡åīĤçļĦ": 3588,
      "å®½å¹¿é¢ĨåŁŁ": 3589,
      "åį¡æĺİæĸ¯": 3590,
      "å·´é»İ": 3591,
      "æī§è¡Į": 3592,
      "âĢĶâĢĶ": 3593,
      "å¾Ĳå¨ĩ": 3594,
      "å¾Ĳä¹Ĳæ±Ł": 3595,
      "ä¼ģä¸ļå®¶ç²¾ç¥ŀ": 3596,
      "æľ¬ä¸ĵä¸ļæĺ¯ä¸º": 3597,
      "æľ¬ä¸ĵä¸ļåŁ¹åħ»çļĦåŃ¦çĶŁ": 3598,
      "å¢¨æ°´": 3599,
      "åģ¥åº·ç®¡çĲĨä¸İåģ¥åº·äº§ä¸ļ": 3600,
      "èĪªç©º": 3601,
      "åŁ¹åħ»åŃ¦çĶŁä»İäºĭæķ°æİ§åĬłå·¥": 3602,
      "è®¤çľŁåŃ¦ä¹łè´¯å½»åħļçļĦåįģä¹Ŀå¤§ç²¾ç¥ŀ": 3603,
      "çªģåĩº": 3604,
      "è®¡ç®ĹæľºæĬĢæľ¯ä¸İåºĶçĶ¨": 3605,
      "åĪĿä¸ŃåŃ¦çĶŁ": 3606,
      "çººç»ĩæľįè£ħ": 3607,
      "å¿ĥçĲĨåģıå·®çļĦ": 3608,
      "èĸĦ": 3609,
      "äº¦æĹł": 3610,
      "ä»¤äºº": 3611,
      "ä¹¡æĿĳæĮ¯": 3612,
      "æĺ¯ä»¥çľģ": 3613,
      "è¯īæ±Ĥ": 3614,
      "èĥ½åľ¨è¿ĲåĬ¨æİ§åĪ¶": 3615,
      "æ¶¨æĪ¿ç§Ł": 3616,
      "è°ĪåĪ°": 3617,
      "æķ°æİ§åĬłå·¥ä¸Ńå¿ĥåıĬåħ¶": 3618,
      "é£Łåĵģæ¶Īæ³¡åīĤ": 3619,
      "æ£Ģæµĭä¸İèĩªåĬ¨åĮĸä»ªè¡¨": 3620,
      "æ´»æĢ§çĤŃåĲ¸éĻĦåīĤ": 3621,
      "æ¥ļ": 3622,
      "çļĦæķĻèĤ²æĢĿæĥ³": 3623,
      "å¤«å¦»": 3624,
      "ä¸Ģçº¿åŁİå¸Ĥ": 3625,
      "åįıè°ĥ": 3626,
      "æĬĵä½ı": 3627,
      "å¤§å¤ļæķ°": 3628,
      "è¦ĨçĽĸ": 3629,
      "éĻ¶çĵ·": 3630,
      "å±ķè§Īä¼ļ": 3631,
      "æ¶īåıĬ": 3632,
      "èµĦæł¼è¦ģæ±Ĥ": 3633,
      "è°¢å½¬å½¬": 3634,
      "éĶĻè¿ĩ": 3635,
      "çĦ¦èĻĳ": 3636,
      "æŁĲäºĽ": 3637,
      "ç´¯è®¡": 3638,
      "æĻºèĥ½åĮĸ": 3639,
      "å²ģçļĦ": 3640,
      "å³°ä¼ļ": 3641,
      "ä¸Ńåįİäººæ°ĳåħ±åĴĮåĽ½å¢ĥåĨħ": 3642,
      "ç¨ĭåº¦ä¸Ĭå½±åĵį": 3643,
      "éļĶçĥŃæĸŃæ¡¥éĵĿéĹ¨çªĹ": 3644,
      "UVåħīè§£": 3645,
      "çļĦåħ³éĶ®åĽłç´ł": 3646,
      "å°¤åħ¶": 3647,
      "è´µå·ŀ": 3648,
      "å®ŀçĶ¨æĬĢèĥ½çī¹çĤ¹çļĦçī¹èī²ä¸ĵä¸ļ": 3649,
      "é¡¿æ²³": 3650,
      "æģĲæĢĸ": 3651,
      "åĳĪçİ°": 3652,
      "ä¸ĵéĹ¨äººæīį": 3653,
      "è½¯ä»¶": 3654,
      "æĸĩçī©åĴĮ": 3655,
      "æł¡ä¼ģèģĶåĲĪ": 3656,
      "çĶµå·¥æĬĢæľ¯": 3657,
      "çĶµæ°ĶèĩªåĬ¨åĮĸå®īè£ħ": 3658,
      "æľĢé«ĺè¯Ħçº§åŃ¦ç§ĳ": 3659,
      "æ··åĲĪ": 3660,
      "æĸ¯æ³°åĽł": 3661,
      "æİ¨è¿ĽçĶŁæĢģæĸĩæĺİå»ºè®¾çļĦ": 3662,
      "æ¯ıå¤©åħ³æľºä¸Ģå°ıæĹ¶": 3663,
      "éĿĴå°ĳå¹´": 3664,
      "æ³¢å£«é¡¿æ²³": 3665,
      "èªįçĤº": 3666,
      "ä¼ģä¸ļçļĦä¿¡æģ¯åĮĸå»ºè®¾": 3667,
      "éĢĻæľ¬æĽ¸çļĦ": 3668,
      "åĻªéŁ³": 3669,
      "åĬ³åĬ¡åĪĨåĮħ": 3670,
      "å·´ç»ĵä»ĸ": 3671,
      "é©¬åħĭæĢĿä¸»ä¹īçĲĨè®º": 3672,
      "ä¹łè¿ĳå¹³æĸ°æĹ¶ä»£ä¸ŃåĽ½çī¹èī²ç¤¾ä¼ļä¸»ä¹ī": 3673,
      "éİ¢éĭ¼æ²ĸéłŃçļĦèĢĲç£¨æĢ§": 3674,
      "cle": 3675,
      "èĽĭçĻ½": 3676,
      "çļĦå·¥ç¨ĭæĬĢæľ¯åŁºç¡ĢåĴĮä¸Ģå®ļçļĦ": 3677,
      "çļĦåŁºæľ¬çĲĨè®º": 3678,
      "æĺ¯åħ·æľīå®ŀçĶ¨æĬĢèĥ½çī¹çĤ¹çļĦçī¹èī²ä¸ĵä¸ļ": 3679,
      "æľīéĻĲåħ¬åı¸": 3680,
      "ä¸įåĨįæĺ¯": 3681,
      "åĴĮç½ĳç»ľæĬĢæľ¯çŃīè¾ĥ": 3682,
      "éĢĲæ¸Ĳ": 3683,
      "çİ»çĴĥ": 3684,
      "è¦ģåħ·å¤ĩçĶµå·¥æĬĢæľ¯": 3685,
      "çŃīé¢ĨåŁŁä»İäºĭç³»ç»ŁåĪĨæŀĲ": 3686,
      "æĪĲéĥ½éļĶçĥŃæĸŃæ¡¥éĵĿéĹ¨çªĹ": 3687,
      "æĿ¥ä¹ĭä¸įæĺĵ": 3688,
      "ç»ıéĶĢåķĨ": 3689,
      "åĲĪéĩĳåŀĭæĿĲ": 3690,
      "æĹłæĮĤç¢į": 3691,
      "çĽ¸å®¹æĢ§": 3692,
      "ç®¡çĲĨä¸İåĨ³çŃĸçŃīé¢ĨåŁŁä»İäºĭç³»ç»ŁåĪĨæŀĲ": 3693,
      "ç´ħç¡¬æĢ§": 3694,
      "å¤©çĮ«": 3695,
      "å¿ĥçĲĨçļĦåŃ¦çĶŁæĸ½ä»¥": 3696,
      "çº§å·¥ç¨ĭæĬĢæľ¯äººæīį": 3697,
      "ç¼ĿåĪ¶è®¾å¤ĩ": 3698,
      "æĪĸåľ¨æĬĢæľ¯éĥ¨éĹ¨ä»İäºĭå·¥èīº": 3699,
      "çĶŁäº§çİ°åľºä»İäºĭäº§åĵģåĪ¶éĢł": 3700,
      "çĶŁäº§æĬĢæľ¯ç®¡çĲĨçŃīæĸ¹éĿ¢çļĦé«ĺçŃī": 3701,
      "è¦ģæ±ĤåŃ¦çĶŁèĥ½åľ¨çĶŁäº§çİ°åľºä»İäºĭäº§åĵģåĪ¶éĢł": 3702,
      "ç½ĳç»ľæĪĲçĺ¾çļĦ": 3703,
      "è®¡ç®Ĺç¨İæ¬¾æįŁå¤±æĹ¶": 3704,
      "ä¸»è¦ģåŁ¹åħ»åŃ¦çĶŁæķ°æİ§ç¼ĸç¨ĭ": 3705,
      "å®ĥæķ°æİ§è®¾å¤ĩçļĦæĵįä½ľ": 3706,
      "ä¾ĿèĪ¬èĭ¥æ³¢ç½Ĺèľľå¤ļæķħ": 3707,
      "å·¥åķĨä¸ļèģĶåĲĪä¼ļ": 3708,
      "èĩªåĬ¨æ£Ģæµĭä¸İä»ªè¡¨": 3709,
      "ç§ĳæĬĢå¼ĢåıĳåıĬçłĶç©¶çŃīæĸ¹éĿ¢å·¥ä½ľçļĦé«ĺ": 3710,
      "å·¥ç¨ĭæĬĢæľ¯åºĶçĶ¨åŀĭäººæīį": 3711,
      "ç»´æĬ¤æĸ¹éĿ¢çļĦçĲĨè®ºçŁ¥è¯ĨåĴĮä¸ĵä¸ļçŁ¥è¯Ĩ": 3712,
      "å®½å¹¿é¢ĨåŁŁçļĦå·¥ç¨ĭæĬĢæľ¯åŁºç¡ĢåĴĮä¸Ģå®ļçļĦ": 3713,
      "æľ¬ä¸ĵä¸ļæĺ¯ä¸ºåŁ¹åħ»åŃ¦çĶŁä»İäºĭæķ°æİ§åĬłå·¥": 3714,
      "æľ¬ä¸ĵä¸ļåŁ¹åħ»çļĦåŃ¦çĶŁè¦ģåħ·å¤ĩçĶµå·¥æĬĢæľ¯": 3715,
      "è®¡ç®ĹæľºæĬĢæľ¯ä¸İåºĶçĶ¨åĴĮç½ĳç»ľæĬĢæľ¯çŃīè¾ĥ": 3716,
      "ä¹¡æĿĳæĮ¯åħ´": 3717,
      "æķ°æİ§åĬłå·¥ä¸Ńå¿ĥåıĬåħ¶å®ĥæķ°æİ§è®¾å¤ĩçļĦæĵįä½ľ": 3718,
      "çĶµæ°ĶèĩªåĬ¨åĮĸå®īè£ħä¸İç»´æĬ¤": 3719,
      "ä¹łè¿ĳå¹³æĸ°æĹ¶ä»£ä¸ŃåĽ½çī¹èī²ç¤¾ä¼ļä¸»ä¹īæĢĿæĥ³": 3720,
      "èĽĭçĻ½è´¨": 3721,
      "çĶŁäº§æĬĢæľ¯ç®¡çĲĨçŃīæĸ¹éĿ¢çļĦé«ĺçŃīå·¥ç¨ĭæĬĢæľ¯åºĶçĶ¨åŀĭäººæīį": 3722,
      "ç§ĳæĬĢå¼ĢåıĳåıĬçłĶç©¶çŃīæĸ¹éĿ¢å·¥ä½ľçļĦé«ĺçº§å·¥ç¨ĭæĬĢæľ¯äººæīį": 3723,
      "å®½å¹¿é¢ĨåŁŁçļĦå·¥ç¨ĭæĬĢæľ¯åŁºç¡ĢåĴĮä¸Ģå®ļçļĦä¸ĵä¸ļçŁ¥è¯Ĩ": 3724,
      "è®¡ç®ĹæľºæĬĢæľ¯ä¸İåºĶçĶ¨åĴĮç½ĳç»ľæĬĢæľ¯çŃīè¾ĥå®½å¹¿é¢ĨåŁŁçļĦå·¥ç¨ĭæĬĢæľ¯åŁºç¡ĢåĴĮä¸Ģå®ļçļĦä¸ĵä¸ļçŁ¥è¯Ĩ": 3725,
      ",ãĢĬ": 3726,
      "02": 3727,
      "14": 3728,
      "23": 3729,
      "24": 3730,
      "50": 3731,
      "54": 3732,
      "69": 3733,
      "70": 3734,
      "74": 3735,
      "80": 3736,
      "84": 3737,
      "96": 3738,
      ";âĢľ": 3739,
      "AA": 3740,
      "AD": 3741,
      "AèĤ¡": 3742,
      "CAD": 3743,
      "DM": 3744,
      "GB": 3745,
      "LC": 3746,
      "Pin": 3747,
      "PLC": 3748,
      "RA": 3749,
      "TO": 3750,
      "TçļĦ": 3751,
      "acle": 3752,
      "en": 3753,
      "es": 3754,
      "ic": 3755,
      "kå¤§å¤§": 3756,
      "la": 3757,
      "nacle": 3758,
      "¡èĥ¶": 3759,
      "¢äºĨ": 3760,
      "¢åĬł": 3761,
      "£è¾": 3762,
      "¤åĥ": 3763,
      "¥åĮ": 3764,
      "¥è¡Į": 3765,
      "¥åİĤ": 3766,
      "¥ç¦»": 3767,
      "§åħĭ": 3768,
      "§å¸«": 3769,
      "§æ´²": 3770,
      "¨åľ¨": 3771,
      "¨å¿ĥ": 3772,
      "¨å¤§çļĦ": 3773,
      "¨æħ": 3774,
      "¨è¯¢": 3775,
      "©æİĴ": 3776,
      "ªæ³ķ": 3777,
      "«èĢ": 3778,
      "«è¿Ļç§į": 3779,
      "¬å¼Ģ": 3780,
      "¬éĹ´": 3781,
      "¯åıĳå±ķçļĦ": 3782,
      "¯çķı": 3783,
      "±åĴĮ": 3784,
      "±æĥĳ": 3785,
      "²çļĦ": 3786,
      "¶è£ħ": 3787,
      "¸ı": 3788,
      "¸å®": 3789,
      "¸ä¿Ĺ": 3790,
      "»į": 3791,
      "»åĬł": 3792,
      "¼ĵ": 3793,
      "½è¯¯": 3794,
      "¾éļ¾": 3795,
      "¾éº": 3796,
      "å«": 3797,
      "çµ": 3798,
      "ç¶": 3799,
      "çį": 3800,
      "çŀ": 3801,
      "è¤": 3802,
      "è«": 3803,
      "è¹": 3804,
      "è¸ı": 3805,
      "è»į": 3806,
      "é¼ĵ": 3807,
      "ĠA": 3808,
      "ĠB": 3809,
      "ĠR": 3810,
      "Ġç±»": 3811,
      "ģè®¸": 3812,
      "ģéħ®": 3813,
      "ģå°¼": 3814,
      "ħåĬĽ": 3815,
      "ħåº¦": 3816,
      "ĨçļĦ": 3817,
      "Ĩä»": 3818,
      "īå¿«": 3819,
      "ĭçļĦ": 3820,
      "ĭéħ¸": 3821,
      "ıçļĦ": 3822,
      "ıç´«": 3823,
      "ĲæĤ£": 3824,
      "ĳéĩį": 3825,
      "ĳä¸ĩ": 3826,
      "ĳæĥĳ": 3827,
      "ĶéĻ¤": 3828,
      "ķç»į": 3829,
      "ĸåķ": 3830,
      "Ĺç¤º": 3831,
      "Ĺæĸ¯": 3832,
      "ĺäºº": 3833,
      "Ļéħ®": 3834,
      "ļæĪ": 3835,
      "ŁåĪ°": 3836,
      "Łå¾ħ": 3837,
      "ä¸ĳ": 3838,
      "ä¸ģéħ®": 3839,
      "ä¸Ļéħ®": 3840,
      "çļĦä¸Ń": 3841,
      "çļĦè´": 3842,
      "çļĦæ¬": 3843,
      "çļĦåħ¬": 3844,
      "çļĦçĽ¸": 3845,
      "çļĦæĥħ": 3846,
      "çļĦå»ºè®¾": 3847,
      "çļĦæĥ³": 3848,
      "çļĦåİ»": 3849,
      "çļĦç¨İé¢Ŀ": 3850,
      "çļĦç²": 3851,
      "çļĦåħ·æľī": 3852,
      "çļĦç³»ç»Ł": 3853,
      "çļĦéĤ": 3854,
      "çļĦéĽĨ": 3855,
      "çļĦä¼ł": 3856,
      "çļĦçĶŁæ´»": 3857,
      "çļĦéĩĩ": 3858,
      "çļĦç»Łè®¡": 3859,
      "çļĦèĥ½åĬĽ": 3860,
      "çļĦè®¡ç®Ĺ": 3861,
      "çļĦä¸»è¦ģ": 3862,
      "çļĦåºĶçĶ¨": 3863,
      "çļĦåĪ©çĶ¨": 3864,
      "çļĦæĢĿæĥ³": 3865,
      "çļĦå¥³": 3866,
      "çļĦçī¹çĤ¹": 3867,
      "çļĦæ¯ĶèµĽ": 3868,
      "çļĦå·®": 3869,
      "çļĦç»ıèĲ¥": 3870,
      "çļĦä¸Ģç§į": 3871,
      "çļĦçĽ®æłĩ": 3872,
      "çļĦèĻļ": 3873,
      "çļĦåĲĮæĹ¶": 3874,
      "çļĦéĩįè¦ģ": 3875,
      "çļĦè§Ĥä¼Ĺ": 3876,
      "çļĦè¡¨éĿ¢": 3877,
      "çļĦæ½": 3878,
      "çļĦè¿ĩç¨ĭä¸Ń": 3879,
      "çļĦåħ¸": 3880,
      "çļĦèµĦæĸĻ": 3881,
      "çļĦåıĺåĮĸ": 3882,
      "çļĦåĨħå®¹": 3883,
      "çļĦäº¬ä¸ľ": 3884,
      "çļĦæĹĭ": 3885,
      "çļĦç§ģ": 3886,
      "çļĦçİ°å®ŀ": 3887,
      "çļĦå®ŀéĻħ": 3888,
      "çļĦå®ŀè·µ": 3889,
      "çļĦçĪ±äºº": 3890,
      "çļĦåĽ½å®¶ç¨İæ¬¾": 3891,
      "çļĦçĭ¬ç«ĭ": 3892,
      "çļĦéħįéĢģ": 3893,
      "çļĦæĮĳæĪĺ": 3894,
      "çļĦåĲĮåŃ¦": 3895,
      "çļĦæĦıè§ģ": 3896,
      "çļĦåİĭåĬĽ": 3897,
      "çļĦä¼Łå¤§": 3898,
      "çļĦåĽłç¼ĺ": 3899,
      "çļĦæķ°åŃĹåĮĸè½¬åŀĭ": 3900,
      "äº®": 3901,
      "äºŀ": 3902,
      "äºŁå¾ħ": 3903,
      "æľ¨": 3904,
      "æľ½": 3905,
      "æľĥ": 3906,
      "ãĢĤâĢľ": 3907,
      "åħµ": 3908,
      "åħģè®¸": 3909,
      "å¤º": 3910,
      "ä»°": 3911,
      "ä»ĩ": 3912,
      "ä»¿çŃī": 3913,
      "åı¬å¼Ģ": 3914,
      "åŃĶ": 3915,
      "åŃĺ": 3916,
      "åŃ¤åĥ": 3917,
      "å®¡": 3918,
      "å®Ĺ": 3919,
      "å®ľ": 3920,
      "å®ªæ³ķ": 3921,
      "å®«è¿Ļç§į": 3922,
      "è¿ª": 3923,
      "è¿«": 3924,
      "è¿¹": 3925,
      "è¿Ķ": 3926,
      "è¿ŁåĪ°": 3927,
      "çĶ·": 3928,
      "ä½³": 3929,
      "æĺĨä»": 3930,
      "ç»ĥ": 3931,
      "ç»Ŀ": 3932,
      "ä¼¤": 3933,
      "ä¼¦": 3934,
      "ä¼į": 3935,
      "åĲĹ": 3936,
      "åĲķç»į": 3937,
      "åŃ¦ä¸º": 3938,
      "åŃ¦æľ¯": 3939,
      "åŃ¦åİĨ": 3940,
      "ä¸Ģå¤§": 3941,
      "ä¸Ģä¼ļ": 3942,
      "ä¸Ģè¡Į": 3943,
      "ä¸ĢæīĢ": 3944,
      "ä¸Ģä»£": 3945,
      "ä¸ĢåĲį": 3946,
      "ä¸Ģä¹¦ä¸Ń": 3947,
      "è®Ģ": 3948,
      "è®Ń": 3949,
      "æĸ¥": 3950,
      "æĸĹ": 3951,
      "ä¹ĺ": 3952,
      "åį«": 3953,
      "åįĪ": 3954,
      "æĺ¯ä¸į": 3955,
      "æĺ¯å¤§": 3956,
      "æĺ¯å¯¹": 3957,
      "æĺ¯åħ¶": 3958,
      "æĺ¯æĺİ": 3959,
      "æĺ¯èī²": 3960,
      "æĺ¯æľĢ": 3961,
      "æĺ¯åŁ¹åħ»": 3962,
      "æĺ¯é¦ĸ": 3963,
      "æĺ¯çĶ±": 3964,
      "æĺ¯çľģå±ŀ": 3965,
      "æĺ¯åĲ¦": 3966,
      "æĺ¯åŁºäºİ": 3967,
      "æľīåĬĽ": 3968,
      "æľīåĬ©": 3969,
      "æľīå¾Īå¤§çļĦ": 3970,
      "æľīåĩºåħ¥": 3971,
      "åºķ": 3972,
      "åº¸ä¿Ĺ": 3973,
      "åºļæĪ": 3974,
      "ä¸ļçļĦä¿¡æģ¯åĮĸ": 3975,
      "ä¸ļäººåĳĺ": 3976,
      "æķĮ": 3977,
      "æķı": 3978,
      "ä¸įçĶŁ": 3979,
      "ä¸įäºĨ": 3980,
      "ä¸įæĿ¥": 3981,
      "ä¸įåºĶ": 3982,
      "ä¸įåĩº": 3983,
      "ä¸įå¾Ĺ": 3984,
      "ä¸įå¹³": 3985,
      "ä¸įè§£": 3986,
      "ä¸įå¢ŀ": 3987,
      "ä¸įå·²": 3988,
      "ä¸įæīĵ": 3989,
      "ä¸įéľĢè¦ģ": 3990,
      "ä¸įçķĻ": 3991,
      "ä¸įèĻļ": 3992,
      "ä¸įåĩı": 3993,
      "ä¸įåĲ«": 3994,
      "ä¸įç¨³å®ļ": 3995,
      "ä¸įå¼Ĥ": 3996,
      "ä¸įåĵŃ": 3997,
      "ä¸įéĶĻ": 3998,
      "ä¸įå¿ħè¦ģ": 3999,
      "ä¸įç¡®å®ļ": 4000,
      "ä¸įåħģè®¸": 4001,
      "åĮĢ": 4002,
      "åĮł": 4003,
      "å·Ŀ": 4004,
      "å·§åħĭ": 4005,
      "å·¨å¤§çļĦ": 4006,
      "ä¸Ńæĸĩ": 4007,
      "ä¸Ńåī": 4008,
      "ä¸ŃåŃ¦çĶŁ": 4009,
      "ä¸Ńç©º": 4010,
      "ä¸Ńåħ±": 4011,
      "ä¸Ńåħ·æľī": 4012,
      "ä¸Ńæ²Ĵæľī": 4013,
      "ä¸Ńéķ¿æľŁ": 4014,
      "ä¸Ńæľīå¤ļ": 4015,
      "äººæĺ¯": 4016,
      "äººåľ¨": 4017,
      "äººå¤§": 4018,
      "äººä¸º": 4019,
      "äººå·¥": 4020,
      "äººåı¯": 4021,
      "äººæĹł": 4022,
      "äººæĪĸ": 4023,
      "äººéĻħ": 4024,
      "äººçĶŁçļĦ": 4025,
      "äººä¸Ģæł·": 4026,
      "å¸ģ": 4027,
      "å¹ħåº¦": 4028,
      "åľ¨äºİ": 4029,
      "åľ¨æľ¬": 4030,
      "åľ¨æĪĳä»¬": 4031,
      "åľ¨è¿Ľè¡Į": 4032,
      "åľ¨å¸Ĥåľº": 4033,
      "åľ¨å®ŀéªĮå®¤": 4034,
      "åľ¨åħ¨åĽ½": 4035,
      "åľ¨åŁİ": 4036,
      "åľ¨åĬłå·¥": 4037,
      "åľ¨æķ°åŃĹåĮĸ": 4038,
      "åľ¨ä»¥åĲİ": 4039,
      "åľ¨è¿ĩåİ»": 4040,
      "åľ¨æĺ¥èĬĤæľŁéĹ´": 4041,
      "åľ¨çİ°åľº": 4042,
      "åľ¨ä¸Ģèµ·": 4043,
      "åľ¨å¾Īå¤§": 4044,
      "çīĽ": 4045,
      "çī§å¸«": 4046,
      "æĬĳ": 4047,
      "æĬĺ": 4048,
      "çĶŁåĬ¨": 4049,
      "çĶŁæ¶": 4050,
      "çĶŁèĢģ": 4051,
      "åĴ¨è¯¢": 4052,
      "åĴĸåķ": 4053,
      "æĢ¨": 4054,
      "æĢª": 4055,
      "æĢĢ": 4056,
      "æĢ¯çķı": 4057,
      "æī°": 4058,
      "æĹı": 4059,
      "åĴĮåĵģ": 4060,
      "åĴĮæĬĢæľ¯": 4061,
      "åĴĮåŃ¦çĶŁ": 4062,
      "åĴĮè®¾å¤ĩ": 4063,
      "åĴĮæľįåĬ¡": 4064,
      "åĴĮåĪ©çĶ¨": 4065,
      "åĴĮä½¿çĶ¨": 4066,
      "åĴĮå¼Ģåıĳ": 4067,
      "åĴĮéĶĢåĶ®": 4068,
      "åĴĮå®¶éķ¿": 4069,
      "åĴĮå½ĵä»£": 4070,
      "åĴĮç¾İæľ¯é¦Ĩ": 4071,
      "åĴĮè¯Ħä»·": 4072,
      "åĴĮå®Ŀå®Ŀ": 4073,
      "åĴĮçĥ¦æģ¼": 4074,
      "åĴĮæ¡Īä¾ĭ": 4075,
      "åĴĮè¡ĮåĬ¨": 4076,
      "åĴĮæ³ķäºº": 4077,
      "åĴĮåĨħéĥ¨": 4078,
      "åĴĮè£ħå¤ĩ": 4079,
      "è¯¦": 4080,
      "è¯±æĥĳ": 4081,
      "å¤§åŃ¦çĶŁ": 4082,
      "å¤§æ°Ķ": 4083,
      "å¤§èµĽ": 4084,
      "å¤§éĥ¨åĪĨ": 4085,
      "å¤§è§ī": 4086,
      "å¤§åºĨ": 4087,
      "å¤§çİĭ": 4088,
      "å¤§éĥ½ä¼ļ": 4089,
      "å¤§éĿŀåħ¬æľīåĪ¶ç»ıæµİäººå£«": 4090,
      "ç§Ĵ": 4091,
      "å°¾": 4092,
      "å°Ħ": 4093,
      "å°Ĭ": 4094,
      "å°į": 4095,
      "å°Ŀ": 4096,
      "å¿ĺ": 4097,
      "æłı": 4098,
      "âĢĵ": 4099,
      "åĽ½ç«ĭ": 4100,
      "å±¥è¡Į": 4101,
      "æĿİ": 4102,
      "æĿľ": 4103,
      "äºĨå¤§": 4104,
      "äºĨä¸ī": 4105,
      "äºĨä¸Ģä¸ª": 4106,
      "äºĨåħļ": 4107,
      "äºĨåĩł": 4108,
      "äºĨæ³¢å£«é¡¿æ²³": 4109,
      "å¼Ĺ": 4110,
      "å¼Ł": 4111,
      "ç¨į": 4112,
      "çĲĨæĪĳä»¬": 4113,
      "çĲĨåŁºç¡ĢåŃ¦ç§ĳ": 4114,
      "éĩĬ": 4115,
      "éĩİ": 4116,
      "è¦ģå¤ļ": 4117,
      "è¦ģå¥½": 4118,
      "è¦ģåįĸ": 4119,
      "è¦ģåĽ´ç»ķ": 4120,
      "è¦ģæ¶¨æĪ¿ç§Ł": 4121,
      "ä¸ºåĩĨ": 4122,
      "ä¸ºåħ¬ä¼Ĺ": 4123,
      "ä¸ºä¸ĢèĪ¬çº³ç¨İäºº": 4124,
      "è¡ĵ": 4125,
      "çŃ¾": 4126,
      "çŃĶ": 4127,
      "èµģ": 4128,
      "å¥´": 4129,
      "èĥ½ä½¿": 4130,
      "èĥ½å®ŀçİ°": 4131,
      "èĥ½æºĲ": 4132,
      "èĥ½èĥľ": 4133,
      "èĥ½èĢĹ": 4134,
      "èĢ½è¯¯": 4135,
      "å¯Ĵ": 4136,
      "åĨł": 4137,
      "åĮĸäºĨ": 4138,
      "åĮĸç®¡": 4139,
      "ä¸ªæĢ§": 4140,
      "ä¸ªåŃ¦ç§ĳ": 4141,
      "ä¸ªäºĮ": 4142,
      "ä¸ªé¡¹çĽ®": 4143,
      "ä¸ªä¸Ģçº§åŃ¦ç§ĳ": 4144,
      "ä»¥æľºæ¢°": 4145,
      "ä»¥æ»¡è¶³": 4146,
      "ä»¥é«ĺåº¦": 4147,
      "è´·": 4148,
      "å·¥äºº": 4149,
      "å·¥åľ°": 4150,
      "å·¥åħ·": 4151,
      "å·¥åİĤ": 4152,
      "å·¥èĸ": 4153,
      "ä¼ļéķ¿": 4154,
      "ä¼ļåŁİå¸Ĥ": 4155,
      "æİı": 4156,
      "å®¶éĥ½": 4157,
      "å®¶å±ħ": 4158,
      "åİ¿": 4159,
      "åİī": 4160,
      "åĩŃ": 4161,
      "éĹ¹çļĦ": 4162,
      "åĵ¥": 4163,
      "åĵ²": 4164,
      "é¢ĳ": 4165,
      "çĶ¨çļĦ": 4166,
      "çĶ¨æĢ§": 4167,
      "çĶ¨äºİ": 4168,
      "çĶ¨çº¸": 4169,
      "çĶ¨éĢĶ": 4170,
      "çĶ¨åĴĮå¼Ģåıĳ": 4171,
      "ä¿©": 4172,
      "çī©ä»¶": 4173,
      "æ³½": 4174,
      "çĽĪ": 4175,
      "çĽŁ": 4176,
      "å¤ļå¹´": 4177,
      "å¤ļæķ°": 4178,
      "å¤ļæ¬¡": 4179,
      "å¤ļè¯´": 4180,
      "å¤ļåıĺ": 4181,
      "å¤ļåħĥ": 4182,
      "å¤ļå¸ĥ": 4183,
      "å¤ļè¯»": 4184,
      "çŃīå¤ļ": 4185,
      "çŃīä¸ĵä¸ļ": 4186,
      "çŃīå·¥ä½ľ": 4187,
      "çŃīè¿Ľè¡Į": 4188,
      "çŃīåŃ¦æł¡": 4189,
      "çŃīä¸»è¦ģ": 4190,
      "çŃīè¡Įä¸ļ": 4191,
      "çŃīéĥ½æľī": 4192,
      "éĻĢ": 4193,
      "éĻĨ": 4194,
      "åĪ°è¿Ļ": 4195,
      "åĪ°åįļçī©é¦Ĩ": 4196,
      "åĪ°åĲİ": 4197,
      "åĪ°å¤Ħ": 4198,
      "åĪ°è¾¾": 4199,
      "åĪ°åŃ¦ä¹ł": 4200,
      "åĪ°æĿ¥çļĦ": 4201,
      "å¿ĥä¸Ń": 4202,
      "å¿ĥåĴĮ": 4203,
      "å¿ĥä¸ŃçļĦ": 4204,
      "å¿ĥå£°": 4205,
      "ä¸Ĭçº§": 4206,
      "ä¸Ĭä¸Ģä¸ª": 4207,
      "ä¸Ĭè®²": 4208,
      "ä¸Ĭçĺ": 4209,
      "ä¸Ĭä¸Ģæ¬¡": 4210,
      "ä¸Ĭåº§": 4211,
      "ä¸Ĭçİ©": 4212,
      "ä¸Ĭå¸¦æľī": 4213,
      "æĥ¡": 4214,
      "æĥľ": 4215,
      "è¿ĽäºĨ": 4216,
      "è¿ĽèĢĮ": 4217,
      "è¿Ľè´§": 4218,
      "è¿Ľæĸ¹åĲĳ": 4219,
      "å±ķä¼ļ": 4220,
      "æĪĳçļĦ": 4221,
      "æĪĳåĽ½": 4222,
      "æĪĳä¸ª": 4223,
      "æĶ»": 4224,
      "æĪĲæķĪ": 4225,
      "æĪĲåŀĭ": 4226,
      "æĪĲåĬŁ": 4227,
      "å¹´åº¦": 4228,
      "å¹´è´§": 4229,
      "å¹´æĸĩæĺİ": 4230,
      "å¹´è½»": 4231,
      "å¹´ä»¥ä¸Ĭ": 4232,
      "çİ°å½ĵä»£": 4233,
      "ä½ĵåį³": 4234,
      "ä½ĵæĵį": 4235,
      "åı¯è§ģ": 4236,
      "åı¯æĮģç»Ń": 4237,
      "å®ŀåĬ¡": 4238,
      "å®ŀåŁºç¡Ģ": 4239,
      "å®ŀæĸ½": 4240,
      "æµ¸": 4241,
      "æµħ": 4242,
      "æµĨ": 4243,
      "èĩªè´Ł": 4244,
      "è®¾æĸ½": 4245,
      "æĿ¥èĩª": 4246,
      "æĿ¥çľĭ": 4247,
      "æĿ¥æºĲ": 4248,
      "é«Ķ": 4249,
      "ä¸İå¤§": 4250,
      "ä¸İè¯¥": 4251,
      "ä¸İç¨İæ¬¾æįŁå¤±": 4252,
      "ä¸İæ°Ķä½ĵ": 4253,
      "ä¸İç´łè´¨": 4254,
      "åĪĨä¼ļ": 4255,
      "åĪĨæķ°": 4256,
      "åĪĨèĻŁ": 4257,
      "åĪĨæīĭ": 4258,
      "åĪĨæİĴåĲį": 4259,
      "æĢ§åĪ«": 4260,
      "æĢ§ä»·": 4261,
      "æĢ§æł¼": 4262,
      "æĢ§äº¤": 4263,
      "æĢ§æİĴæĶ¾": 4264,
      "æĢ§ä¸ĵéĹ¨äººæīį": 4265,
      "è¡ĮåĲĪä¸Ģ": 4266,
      "æŃĮ": 4267,
      "è¿Ļå®¶": 4268,
      "è¿ĻæĹ¶": 4269,
      "è¿Ļå°±": 4270,
      "è¿Ļåı¥": 4271,
      "é«ĺèĢĥ": 4272,
      "é«ĺæ¸©": 4273,
      "é«ĺè´¨éĩı": 4274,
      "é«ĺç´łè´¨": 4275,
      "é«ĺæµĵåº¦": 4276,
      "é«ĺäºĳ": 4277,
      "é«ĺçŃīåŃ¦æł¡": 4278,
      "ä½ľå®¶": 4279,
      "æĮª": 4280,
      "ä¼ģä¸ļä¸İ": 4281,
      "ä¼ģä¸ļåıĬ": 4282,
      "ä¼ģä¸ļçī©æµģ": 4283,
      "ä¼ģä¸ļç»ıèĲ¥": 4284,
      "ä¼ģä¸ļå¾ģä¿¡": 4285,
      "ä¼ģä¸ļæ³ķå®ļ": 4286,
      "ä¼ģä¸ļä¸ºä¸ĢèĪ¬çº³ç¨İäºº": 4287,
      "èīĩ": 4288,
      "èī¾éº": 4289,
      "ç§ĳé²": 4290,
      "ç§ĳåŁºç¡ĢåŃ¦ç§ĳ": 4291,
      "âĢĿ;": 4292,
      "è¿ĩäºĨ": 4293,
      "è¿ĩäºİ": 4294,
      "è¿ĩæ»": 4295,
      "ç¨İåĬ¡": 4296,
      "ç¨İæĶ¶": 4297,
      "ç¨İçİĩ": 4298,
      "æķ°çļĦ": 4299,
      "äº§åħļ": 4300,
      "åĵģæł¼": 4301,
      "åĵģåºĹ": 4302,
      "æģ¨": 4303,
      "æģ©": 4304,
      "æģ°": 4305,
      "æģĭ": 4306,
      "æĹ¶ä¸º": 4307,
      "æĹ¶è¾¾åĪ°": 4308,
      "å¯¹åĨ³": 4309,
      "å¯¹å¾ħ": 4310,
      "å¯¹æĪĲç»©": 4311,
      "å¯¹éĺµ": 4312,
      "æķĻæİĪ": 4313,
      "å¥½ä¹¦": 4314,
      "å¥½è¯Ŀ": 4315,
      "å¥½åıĭ": 4316,
      "èĤ¤": 4317,
      "ä»ĸä¹Ł": 4318,
      "ä»ĸæĪĲäºĨ": 4319,
      "ä»ĸåĢĳ": 4320,
      "ä»ĸå®¶åĴĮ": 4321,
      "å»ºæĿĲ": 4322,
      "å»ºæ¨¡": 4323,
      "åĬĽåº¦": 4324,
      "åĬĽéĩı": 4325,
      "åĬĽå¤§çİĭ": 4326,
      "éĿ¢åīį": 4327,
      "è¾ī": 4328,
      "è¾ĳ": 4329,
      "è¾Ľ": 4330,
      "éģ¥": 4331,
      "éģĹ": 4332,
      "åºĶå½ĵ": 4333,
      "åıĳå±ķåīį": 4334,
      "åıĳå±ķä¸ŃçļĦ": 4335,
      "åıĳå±ķè¿ĩç¨ĭä¸Ń": 4336,
      "åıĳå±ķçĲĨå¿µ": 4337,
      "åĳ¼åĲ": 4338,
      "æĦīå¿«": 4339,
      "æŀ¶": 4340,
      "çĤĴ": 4341,
      "çĤ«èĢ": 4342,
      "ä¹Łæľī": 4343,
      "ä¹Łåľ¨": 4344,
      "ä¹Łæ¯Ķè¾ĥ": 4345,
      "ä¸ŃåĽ½å°Ĩ": 4346,
      "ä¸ŃåĽ½æ¢¦": 4347,
      "ä¸ŃåĽ½è¯Ńè¨ĢæĸĩåŃ¦": 4348,
      "ä¸ŃåĽ½çĶŁæĢģæĸĩæĺİå»ºè®¾": 4349,
      "ä¸ŃåĽ½åģ¥åº·ç®¡çĲĨä¸İåģ¥åº·äº§ä¸ļ": 4350,
      "ä¸ŃåĽ½æĸĩçī©åĴĮ": 4351,
      "ä¸ŃåĽ½å·¥åķĨä¸ļèģĶåĲĪä¼ļ": 4352,
      "ä¸ŃåĽ½çİ°å½ĵä»£": 4353,
      "æľºæŀĦ": 4354,
      "æľºéģĩ": 4355,
      "æľºåĲĪä¸Ģ": 4356,
      "åĢ¾": 4357,
      "æĬĢæľ¯çī¹çĤ¹": 4358,
      "æĬĢæľ¯å¯¹å®ŀéªĮå®¤": 4359,
      "æĬĢæľ¯åĴĮè£ħå¤ĩ": 4360,
      "æ¬²": 4361,
      "ä¸ĵé¢ĺ": 4362,
      "åħ¨éĥ¨": 4363,
      "åħ¨ç¤¾ä¼ļ": 4364,
      "åħ¨æĹ¥": 4365,
      "åħ¨ä¹¦": 4366,
      "åĪ¶å®ļ": 4367,
      "çī¹çļĦ": 4368,
      "çī¹å¾ģ": 4369,
      "ä¿¡å¿µ": 4370,
      "ä¿¡ä»°": 4371,
      "å¦¥": 4372,
      "å¦Ħ": 4373,
      "çĥ¤": 4374,
      "çĥ§": 4375,
      "åĲĪåĬĽ": 4376,
      "ç¤¼": 4377,
      "éĥĬ": 4378,
      "éĥĳéĩį": 4379,
      "æĭ¾": 4380,
      "æĭ¿": 4381,
      "æĭĴ": 4382,
      "æĭĶ": 4383,
      "æĭŁ": 4384,
      "ç½ª": 4385,
      "æĸĩçĲĨåŁºç¡ĢåŃ¦ç§ĳ": 4386,
      "æĸĩç§ĳåŁºç¡ĢåŃ¦ç§ĳ": 4387,
      "å¼ĢèµĽ": 4388,
      "å¼ĢéĺĶ": 4389,
      "éķ·": 4390,
      "èģª": 4391,
      "ç¥Ŀ": 4392,
      "æľ¬ç«Ļ": 4393,
      "åĽłçĤº": 4394,
      "åįļéĩĩ": 4395,
      "åįļå½©": 4396,
      "æł¡æľį": 4397,
      "æł¡åĮº": 4398,
      "åĩºåĶ®": 4399,
      "åĩºåı°": 4400,
      "éĥ¨éķ¿": 4401,
      "éĥ¨åī¯": 4402,
      "åīµ": 4403,
      "ä¸»åľº": 4404,
      "ä¸»åĬŀ": 4405,
      "ä¸»å¼ł": 4406,
      "ä¸»åľºæ¯ĶèµĽ": 4407,
      "ä¸»æ¼Ķ": 4408,
      "ä¾§": 4409,
      "åħ¬å¸ĥ": 4410,
      "åħ¬åĳĬ": 4411,
      "åĬ¨åĬĽ": 4412,
      "æĪ¿éĹ´": 4413,
      "éķ¿è¿ľ": 4414,
      "ç«¯": 4415,
      "å®ļæľŁ": 4416,
      "åŃ¦çĶŁåıĤ": 4417,
      "æı½": 4418,
      "åľ°çļĦ": 4419,
      "åľ°çĲĥ": 4420,
      "åľ°å¹²": 4421,
      "åľ°åıįæĺł": 4422,
      "åľ°èĩªè¡Į": 4423,
      "åĲĮæľŁ": 4424,
      "å¾ĹçļĦ": 4425,
      "å¾ĹæĹł": 4426,
      "å¾ĹæĽ´å¥½": 4427,
      "ç»ŁæĪĺ": 4428,
      "ç»ŁçŃ¹": 4429,
      "å°±éļı": 4430,
      "å°±ä¸įè¦ģ": 4431,
      "æĪĳä»¬å®¶": 4432,
      "æĪĳä»¬å¸¦": 4433,
      "æĪĳä»¬ä¸įçŁ¥éģĵ": 4434,
      "æ´ĭ": 4435,
      "æ¸¡": 4436,
      "æ¸¯": 4437,
      "åħ¶åıĳå±ķ": 4438,
      "åħ¶çĥŃ": 4439,
      "åħ¶éĹ´": 4440,
      "åķ¥": 4441,
      "æĻĤ": 4442,
      "æĻıç´«": 4443,
      "åĬłå¿«": 4444,
      "å¸ĤåĢ¼": 4445,
      "å¸Ĥå±ŀ": 4446,
      "ä¸ľé£Łåĵģæ¶Īæ³¡åīĤ": 4447,
      "åľºæĻ¯": 4448,
      "å¸ĪèĮĥç¬¬ä¸Ģ": 4449,
      "æĹłæĺİ": 4450,
      "æĹłèī¯": 4451,
      "æĹłç»Ħç»ĩ": 4452,
      "æĹłåºı": 4453,
      "çķ¢åĬł": 4454,
      "æĽ´æĺ¯": 4455,
      "æĽ´è¦ģ": 4456,
      "æĽ´é«ĺ": 4457,
      "æ¶ħ": 4458,
      "èµĦåĬ©": 4459,
      "èµĦä¿¡è®°å½ķ": 4460,
      "èĢĮçİ°åľ¨": 4461,
      "ç¡«": 4462,
      "æīĢè°": 4463,
      "æīĢé«ĺæł¡": 4464,
      "æīĢåħ³æ³¨": 4465,
      "æīĢæ¬²": 4466,
      "æ°´åĴĮ": 4467,
      "æ°´æ³": 4468,
      "æ°´å¤ĦçĲĨ": 4469,
      "åįļçī©é¦Ĩä¸į": 4470,
      "åįļçī©é¦ĨçŃī": 4471,
      "åįļçī©é¦ĨæĸĩåĮĸ": 4472,
      "åįļçī©é¦Ĩäºĭä¸ļ": 4473,
      "åįļçī©é¦ĨåĴĮç¾İæľ¯é¦Ĩ": 4474,
      "æıĲåĪ°": 4475,
      "èĻİ": 4476,
      "ä»İæĿ¥": 4477,
      "ä»İç¨İæ¬¾æįŁå¤±": 4478,
      "ä»İä¸ļäººåĳĺ": 4479,
      "åıĬçĽ¸åħ³": 4480,
      "åĬ¡å®ŀ": 4481,
      "æ°Ķæģ¯": 4482,
      "æ°ĶçļĦçĪ±äºº": 4483,
      "æ³ķåĽ½": 4484,
      "æ³ķè§Ħ": 4485,
      "æ³ķæ²»": 4486,
      "æĸ°çļĦ": 4487,
      "æĸ°åŀĭ": 4488,
      "æĸ°å¾ģ": 4489,
      "æľŁéĻĲ": 4490,
      "çĤ¹å¤ļ": 4491,
      "ä¿¡æģ¯çļĦæĶ¶": 4492,
      "ç¬¬åħ«": 4493,
      "ç¬¬åįģäºĮ": 4494,
      "ä½¿åºŁæ°Ķ": 4495,
      "çĽ¸éĢĤåºĶ": 4496,
      "ä¸ĵä¸ļæ°´å¹³": 4497,
      "ä¸ĵä¸ļé¢ĨåŁŁ": 4498,
      "ä¸ĵä¸ļæ¯ķä¸ļçĶŁ": 4499,
      "éļ¨å¿ĥ": 4500,
      "éļĲæĤ£": 4501,
      "ä¸ĭåİ»": 4502,
      "ä¸ĭæ¸¸": 4503,
      "ä¸ĭè½½": 4504,
      "ç§įç§į": 4505,
      "éĩįå¤§": 4506,
      "éĩįæĸ°": 4507,
      "éĩįåºĨ": 4508,
      "æ¯ĶåİŁæĿ¥": 4509,
      "çĥŃèĥ½": 4510,
      "çĥŃæĥħ": 4511,
      "çĥŃåįĩ": 4512,
      "çĥŃéĹ¨é¡¹çĽ®": 4513,
      "ç³»çī©": 4514,
      "ç³»æķ°ä¸º": 4515,
      "äºĽå¹´": 4516,
      "è¿Ĳä¼ļ": 4517,
      "è¿ĲçĶ¨": 4518,
      "è¿Ĳä½ľ": 4519,
      "è¿ĺä¼ļ": 4520,
      "è¿ĺæĥ³": 4521,
      "è¿ĺæľª": 4522,
      "ä¹ĭä¸Ń": 4523,
      "ä¹ĭä¸Ĭ": 4524,
      "ä¹ĭä¸ŃåĽ½": 4525,
      "ä¹ĭå¤ĸ": 4526,
      "ä¹ĭè·¯": 4527,
      "å¹³æĸ¹": 4528,
      "æīįæľī": 4529,
      "åĽ½å®¶åĴĮ": 4530,
      "åĽ½å®¶ç¨İæ¬¾æįŁå¤±": 4531,
      "åĽ½å®¶åºĶè¯¥": 4532,
      "åĽ½å®¶éĤ®": 4533,
      "åĽ½å®¶æĸĩç§ĳåŁºç¡ĢåŃ¦ç§ĳ": 4534,
      "åĽ½å®¶æĸ°å¾ģ": 4535,
      "èĢħçļĦ": 4536,
      "èĢħæ¢¦è§ģä¸¤ä¸ªå°ıå¥³åŃ©": 4537,
      "èĢħä¼ĺåħĪ": 4538,
      "å»ºè®¾äººä¸İèĩªçĦ¶åĴĮè°Ĳåħ±çĶŁçļĦ": 4539,
      "å»ºè®¾ç¤¾ä¼ļä¸»ä¹īçİ°ä»£åĮĸ": 4540,
      "è¡¨æĺİ": 4541,
      "è¡¨è¾¾": 4542,
      "è¡¨çİ°åľ¨": 4543,
      "è¡¨è¿°": 4544,
      "å½ĵä¸Ń": 4545,
      "å½ĵæĹ¶": 4546,
      "å½ĵæĪĳä»¬": 4547,
      "å½ĵå¤©": 4548,
      "å½ĵéĢī": 4549,
      "å½ĵä½ĵåį³": 4550,
      "å½ĵåľ°å¹²": 4551,
      "çĿĢåŃ¦çĶŁ": 4552,
      "çĿĢæŀģ": 4553,
      "åģ¥åº·æķĻèĤ²": 4554,
      "åĿĳ": 4555,
      "åħ¥ç¨İæ¬¾æįŁå¤±": 4556,
      "å¾Īå¥½çļĦ": 4557,
      "å¾Īåı¯èĥ½ä¼ļ": 4558,
      "å¾Īå¼ºçļĦ": 4559,
      "ç¾İæĿ¥": 4560,
      "ç¾İåħĥ": 4561,
      "ç®¡çĲĨåĴĮ": 4562,
      "ç®¡çĲĨåįıè°ĥ": 4563,
      "è°¨æħ": 4564,
      "éĺ»": 4565,
      "éĥ½è¦ģ": 4566,
      "éĥ½å¸ĪèĮĥå¤§åŃ¦": 4567,
      "äºĭå¤Ħç½ļ": 4568,
      "æµģè½¬": 4569,
      "æµģåªĴä½ĵ": 4570,
      "ç±»åŀĭ": 4571,
      "èĪĩ": 4572,
      "èĪī": 4573,
      "èĪĴ": 4574,
      "èĪŀ": 4575,
      "éĶħ": 4576,
      "éĶĭ": 4577,
      "æĺİçļĦ": 4578,
      "æĺİç¡®": 4579,
      "æķĻèĤ²åŃ¦": 4580,
      "æķĻèĤ²æĹ¶è¾¾åĪ°": 4581,
      "ä¸īåĪĨ": 4582,
      "ä¸īäºĶ": 4583,
      "ä¸īåĢį": 4584,
      "çľģéĥ¨": 4585,
      "çľģä»½": 4586,
      "éªĤ": 4587,
      "å¤Ħåľ¨": 4588,
      "å°ĨåĴĮ": 4589,
      "å°Ĩåħ¶": 4590,
      "å°Ĩä¼ļæľī": 4591,
      "å°Ĩæľīåħ³": 4592,
      "æ±ĤèģĮ": 4593,
      "æ±Ĥè¶£": 4594,
      "ç¥¨çļĦ": 4595,
      "ç¥¨æĸ¹": 4596,
      "ç¥¨ä»·": 4597,
      "æ¬¡åħ¨åĽ½": 4598,
      "åħ±æĮ¯": 4599,
      "åħ±äº§åħļ": 4600,
      "æ°ĳèĲ¥": 4601,
      "æİ§èĤ¡": 4602,
      "å¿ĥçĲĨäº§çĶŁ": 4603,
      "å¿ĥçĲĨåģ¥åº·æķĻèĤ²": 4604,
      "æ²¡æľīAç±»": 4605,
      "éĩıå¤§": 4606,
      "çĽ®çļĦæĺ¯": 4607,
      "æľĢå¤ļ": 4608,
      "æľĢå¼º": 4609,
      "æľĢç»Ī": 4610,
      "ä½Ĩä»ĸ": 4611,
      "å°ıå¿ĥ": 4612,
      "å°ıåĮº": 4613,
      "å·¥ä½ľçİ¯å¢ĥ": 4614,
      "åİ»éĻ¤": 4615,
      "å¼ºåĮĸ": 4616,
      "ç½ĳä¸ĬçļĦ": 4617,
      "ç¦ģ": 4618,
      "çĪ¾": 4619,
      "æĢģåĬ¿": 4620,
      "è§£åĨ³": 4621,
      "è§£èĦ±": 4622,
      "çŁ¥åĲį": 4623,
      "çŁ¥è¡ĮåĲĪä¸Ģ": 4624,
      "ç¤¾ä¼ļåĮĸ": 4625,
      "ç¤¾ä¼ļç§ĳåŃ¦": 4626,
      "æºľ": 4627,
      "åıªéľĢè¦ģ": 4628,
      "åĪ«ç¦»": 4629,
      "ä¸Ģä¸ªä»·": 4630,
      "ä¸Ģä¸ªåľ°æĸ¹": 4631,
      "èµĽçļĦéĹ¨ç¥¨": 4632,
      "åı¯ä»¥ä»İ": 4633,
      "åı¯ä»¥å¾ĹåĪ°": 4634,
      "åı¯ä»¥åĢŁ": 4635,
      "çĦ¶åĲİ": 4636,
      "åŀ¢": 4637,
      "æķĪèĥ½": 4638,
      "æķĪåºĶ": 4639,
      "çĲĥä¿±ä¹Ĳéĥ¨": 4640,
      "è§Ĥå¿µ": 4641,
      "è§Ĥèĩ´": 4642,
      "è§Ĥå¯Ł": 4643,
      "è§Ĥèĩªåľ¨": 4644,
      "æİĴåľ¨è¿Ļä¸ª": 4645,
      "ç«ĭè¶³": 4646,
      "çł´": 4647,
      "è·Ł": 4648,
      "ãĢĭãĢĤ": 4649,
      "å¯¼æ¼Ķ": 4650,
      "æŃ£åĪĿä¸Ń": 4651,
      "è½¬åıĺ": 4652,
      "è½¬ç§»": 4653,
      "åīįæıĲ": 4654,
      "åīįç»ıè¿ĩ": 4655,
      "åīįè¿Ľæĸ¹åĲĳ": 4656,
      "ä¿¡æģ¯åĮĸç®¡çĲĨ": 4657,
      "å·²æľī": 4658,
      "å·²å½¢æĪĲ": 4659,
      "å¹¶ä¸į": 4660,
      "å¹¶å¯¹": 4661,
      "å¹¶åħ·æľī": 4662,
      "å¹¶æľª": 4663,
      "å¹¶ä¸įä¼ļ": 4664,
      "å¹¶ä¸įæĺ¯": 4665,
      "å¹¶åħ¥ç¨İæ¬¾æįŁå¤±": 4666,
      "è§ģäºĶèķ´": 4667,
      "éĴ¥åĮ": 4668,
      "æĪĸè®¡ç®Ĺæľºè¾ħåĬ©": 4669,
      "çľĭæĿ¥": 4670,
      "çľĭæĽ´å¤ļ": 4671,
      "çľĭä¸įèµ·": 4672,
      "åŀĭçļĦåĲİ": 4673,
      "å£®": 4674,
      "èĭ±": 4675,
      "èĭı": 4676,
      "åĲĳå·¥ç¨ĭ": 4677,
      "åį°è±¡": 4678,
      "æĹ¥è¾¾": 4679,
      "æĹ¥ä¹ĭä¸ŃåĽ½": 4680,
      "æ¶Īåĩı": 4681,
      "åħ·æľīèī¯å¥½çļĦ": 4682,
      "åħ·æľīæľºçĶµä¸Ģä½ĵåĮĸ": 4683,
      "åħ·æľīä¸İè¯¥": 4684,
      "2010": 4685,
      "2016": 4686,
      "æīĵåĩ»": 4687,
      "æīĵè¿ĽäºĨ": 4688,
      "è¿Ľè¡ĮæķĻèĤ²": 4689,
      "è¿Ľè¡ĮæĬµæī£": 4690,
      "è¿Ľè¡ĮæĬķæłĩ": 4691,
      "æĮĩæĺİäºĨ": 4692,
      "æ¨£": 4693,
      "èĥº": 4694,
      "äºĮæ°§åĮĸ": 4695,
      "å®¤å¤ĸ": 4696,
      "æķ´ä¸ª": 4697,
      "æĶ¿å±Ģ": 4698,
      "è®¾å¤ĩä½¿çĶ¨": 4699,
      "èģĶç³»": 4700,
      "èģĶç½ĳ": 4701,
      "èģĶèµĽ": 4702,
      "èģĶçĽŁ": 4703,
      "èĬĤå¥ı": 4704,
      "èĬĤåģĩæĹ¥": 4705,
      "èºģ": 4706,
      "åıĹç¥¨æĸ¹": 4707,
      "åĽĽä¸ª": 4708,
      "åĽĽå·Ŀ": 4709,
      "è®©äºº": 4710,
      "è®©å®Ŀå®Ŀ": 4711,
      "è®©æĽ´å¤ļçļĦ": 4712,
      "è®©ç¾İæĿ¥": 4713,
      "ä¹łä¸»å¸Ń": 4714,
      "ç¦»æ°§": 4715,
      "èĲ¥éĶĢ": 4716,
      "äººæīįçļĦ": 4717,
      "äººæīįå·¥ç¨ĭ": 4718,
      "ç§Łèµģ": 4719,
      "æĸ¹éĿ¢åŃĺåľ¨": 4720,
      "è¥¿å®ī": 4721,
      "åĸĬ": 4722,
      "ä¸¤äºº": 4723,
      "ä¸¤ç§į": 4724,
      "ä»»äº§åĵģ": 4725,
      "æĸĻçŃī": 4726,
      "åįģå¤ļ": 4727,
      "åįģä¸īäºĶ": 4728,
      "æĢĿèĢĥ": 4729,
      "éĩĮçļĦ": 4730,
      "éĩĮçĶŁæĦı": 4731,
      "åİŁæĸĻ": 4732,
      "éľĢè¦ģåľ¨": 4733,
      "è£ħè°ĥ": 4734,
      "è£ħé¥°": 4735,
      "èĹĲ": 4736,
      "åĲĦåĽ½": 4737,
      "åĲĦåľ°": 4738,
      "è®¤åı¯": 4739,
      "è®¤çŁ¥": 4740,
      "å¸¸å¸¸": 4741,
      "çĶŁäº§çº¿": 4742,
      "çĶŁäº§ä¸Ģçº¿": 4743,
      "ç»ıæµİæķĪçĽĬ": 4744,
      "åŃ©åŃĲæĿ¥çľĭ": 4745,
      "ç²¾ç»Ĩ": 4746,
      "èº«å¿ĥ": 4747,
      "èº«ä¸Ĭ": 4748,
      "åħĭåĪ¶": 4749,
      "åħĭæĭī": 4750,
      "åı¸æ³ķ": 4751,
      "å¸¦çĿĢ": 4752,
      "å¸¦ç»Ļ": 4753,
      "å¸¦é¢Ĩ": 4754,
      "æł¼æĺ¯": 4755,
      "çİ¯ä¿Ŀ": 4756,
      "çº¸ä¸ļ": 4757,
      "éĻ¢éķ¿": 4758,
      "éĻ¢éĻ¢": 4759,
      "åģļåĩº": 4760,
      "åģļæĸ°æĹ¶ä»£": 4761,
      "äº§åĵģåĴĮæĬĢæľ¯": 4762,
      "æĪ¿ä¸ľæĺ¯": 4763,
      "æĪ¿ä¸ľè§ģ": 4764,
      "æ£Ħ": 4765,
      "æ·¡": 4766,
      "æ·»åĬł": 4767,
      "éĤ¸å®": 4768,
      "åħļç»Ħ": 4769,
      "è®°ä¸īåĪĨ": 4770,
      "å¿«æį·": 4771,
      "éĩĳå¿Ĺ": 4772,
      "éĩĳåĿĳ": 4773,
      "è¦ģæ±Ĥä»İä¸ļäººåĳĺ": 4774,
      "èµ·æĿ¥": 4775,
      "æĶ¶åħ¥": 4776,
      "æĶ¶èĹı": 4777,
      "æĶ¶èĹıåĵģ": 4778,
      "åı¯èĥ½çļĦ": 4779,
      "åı¯èĥ½èĮĥåĽ´": 4780,
      "å®ŀçİ°æĬµæī£": 4781,
      "å®ŀçİ°æīĭæ®µ": 4782,
      "æķ°æį®çļĦ": 4783,
      "æķ°æį®åºĵ": 4784,
      "åºŁæ°Ķå¤ĦçĲĨ": 4785,
      "çĸ¼": 4786,
      "çĸı": 4787,
      "çĸĳæĥĳ": 4788,
      "ä»¶ä¸Ń": 4789,
      "åĬ©åŃ¦": 4790,
      "åį³ä½¿": 4791,
      "åį³ä¾¿": 4792,
      "åį³è®¡ç®Ĺç¨İæ¬¾æįŁå¤±æĹ¶": 4793,
      "åįĩæ¸©": 4794,
      "æİ¨åĩº": 4795,
      "å¸ĤåľºçļĦ": 4796,
      "åŁºç¡ĢæĢ§": 4797,
      "é£ŀ": 4798,
      "é»ĳ": 4799,
      "è¿ĳå¹´æĿ¥": 4800,
      "ç»Ļä»ĸ": 4801,
      "ç»ĻåĪ«äºº": 4802,
      "æĬĬéĴ±": 4803,
      "æĬĬæĪ¿åŃĲ": 4804,
      "æĬĬæı¡": 4805,
      "ä¿Ŀè¯ģ": 4806,
      "ä¿ĿéĻ©": 4807,
      "éĻ¤ä¸ĢåĪĩ": 4808,
      "èįĴ": 4809,
      "è®ºæĸĩ": 4810,
      "å½¢åĬ¿": 4811,
      "å½¢è±¡": 4812,
      "çľŁçĲĨ": 4813,
      "çľŁå®ŀ": 4814,
      "æķĻåŃ¦ç¤ºèĮĥ": 4815,
      "æķĻåŃ¦çİ¯èĬĤ": 4816,
      "è¾ĥå¥½": 4817,
      "è¾ĥå¥½çļĦ": 4818,
      "èĩªå·±çļĦä¸Ģ": 4819,
      "èĩªå·±çļĦåŃ©åŃĲ": 4820,
      "ç½ĳç»ľä¸Ĭ": 4821,
      "éĽĨä½ĵ": 4822,
      "éĽĨç¾¤": 4823,
      "è¢«éªĹ": 4824,
      "è¨Ģè¡Į": 4825,
      "ä¸ĩçī©": 4826,
      "äº¤äºĴ": 4827,
      "å¸ĥèīº": 4828,
      "å¸ĥå±Ģ": 4829,
      "çĶŁæ´»çļĦ": 4830,
      "çĶŁæ´»æĸ¹å¼ı": 4831,
      "ä»¥åıĬèīºæľ¯": 4832,
      "ä»¥åıĬä¸Ģå®ļçļĦ": 4833,
      "ä»¥åıĬåħ¶ä»ĸ": 4834,
      "æ¯ıåľº": 4835,
      "æ¯ıä¸Ģä½į": 4836,
      "ç©¶ç«Ł": 4837,
      "ç»Łè®¡è¡¨": 4838,
      "ç»Łè®¡åı£": 4839,
      "ç»Łè®¡æĮĩæłĩ": 4840,
      "æ¸¸ç¦»æ°§": 4841,
      "åĽŀæĿ¥": 4842,
      "åĽŀåºĶ": 4843,
      "åĽŀæĬ¥": 4844,
      "ä¼ĺè´¨": 4845,
      "ä¼ĺç¼ºçĤ¹": 4846,
      "ä¸ŃçļĦVOC": 4847,
      "çĶŁæĢģçİ¯å¢ĥ": 4848,
      "çĶŁæĢģä¿ĿæĬ¤": 4849,
      "æĢ»çĲĨ": 4850,
      "æĢ»äººåı£": 4851,
      "å±ĤæŀĹ": 4852,
      "èĥ½åĬĽçļĦé«ĺçŃī": 4853,
      "æ³¢è£¡": 4854,
      "æ±Łè¥¿": 4855,
      "æ±Łèĭı": 4856,
      "ä¸»è¦ģéĿ¢åĲĳ": 4857,
      "ä¸»è¦ģè¡¨çİ°åľ¨": 4858,
      "åĶ¯": 4859,
      "åħĪè¿Ľ": 4860,
      "åıįä¹ĭ": 4861,
      "ç»Ħå»º": 4862,
      "ä¸įåĲĮæĦıè§ģ": 4863,
      "ä¸įåĲĮé¢ľ": 4864,
      "å¹¿åĳĬ": 4865,
      "å¹¿æ³Ľ": 4866,
      "å¹¿å¤§éĿŀåħ¬æľīåĪ¶ç»ıæµİäººå£«": 4867,
      "èĩ³ä¸Ĭ": 4868,
      "æİ¥åĬĽ": 4869,
      "è¿Ļä¸ªéĹ®é¢ĺ": 4870,
      "è¿Ļä¸ªç»ĵæŀľ": 4871,
      "è¿ĩç¨ĭå½ĵä¸Ń": 4872,
      "ä»ĸä»¬å°Ĩ": 4873,
      "ä¾Ľç»Ļ": 4874,
      "è¶Ĭæĺ¯": 4875,
      "ç»Ńç§Ł": 4876,
      "åįķåħĥ": 4877,
      "æīĭåĬ¿": 4878,
      "å°ĳæķ°": 4879,
      "åĨįåģļ": 4880,
      "é¢ĦçĥŃ": 4881,
      "é¢Ħå¤ĦçĲĨ": 4882,
      "é¢Ħéĺ²": 4883,
      "æ³¨æĦı": 4884,
      "å¥½çļĦæĬĬæı¡": 4885,
      "åĳĬè¯ī": 4886,
      "åħ¨åĽ½å¦ĩ": 4887,
      "æīĢä»¥ä¸įä¼ļ": 4888,
      "çłĶç©¶ä¸Ńå¿ĥ": 4889,
      "èģĮä¸ļèĥ½åĬĽ": 4890,
      "èģĮä¸ļæľįè£ħ": 4891,
      "èģĮä¸ļèµĦæł¼è¦ģæ±Ĥ": 4892,
      "èģĮä¸ļçĶŁæ¶": 4893,
      "èģĮä¸ļæķĻèĤ²æĹ¶è¾¾åĪ°": 4894,
      "çģ¾éļ¾": 4895,
      "å¿ħçĦ¶": 4896,
      "å¼ķèµ·": 4897,
      "å¼ķé¢Ĩ": 4898,
      "èĢĥå¯Ł": 4899,
      "æķ°æİ§è½¦": 4900,
      "å¦Ĥæŀľä½ł": 4901,
      "æ¡Īä»¶ä¸Ń": 4902,
      "å½±åĵįåĬĽ": 4903,
      "å½±åĵįèĮĥåĽ´": 4904,
      "é©¬èĻİ": 4905,
      "åĦ¿ç«¥": 4906,
      "å®¢åľº": 4907,
      "å®¢è§Ĥ": 4908,
      "æĪĺèĥľ": 4909,
      "èµ°è¿Ľ": 4910,
      "èĥ½å¤Łåľ¨": 4911,
      "èĥ½å¤Łå¾ĹåĪ°": 4912,
      "èĥ½å¤Łå¼Ģåħ·": 4913,
      "èĢģåĮĸ": 4914,
      "èĢģæŃ»": 4915,
      "åŁİéķĩ": 4916,
      "è¡Įä¸ļä¸Ń": 4917,
      "äº§ä¸ļéĵ¾": 4918,
      "åıĳå±ķçļĦåħ·æľīä¸İè¯¥": 4919,
      "çĶµåŃĲä¸İè®¡ç®ĹæľºæĬĢæľ¯": 4920,
      "çĶµåŃĲåŃ¦ä¸º": 4921,
      "æ°´å¹³ä¸İç´łè´¨": 4922,
      "éļ¾åº¦": 4923,
      "éļıç¼ĺ": 4924,
      "æŁ¥çľĭæĽ´å¤ļ": 4925,
      "ä½Ĩæĺ¯è®°èĢħ": 4926,
      "éĢļè¿ĩå¯¹": 4927,
      "æĢĿæĥ³æķĻèĤ²": 4928,
      "æ·±åĪ»": 4929,
      "è¿Ľé¡¹çķĻæĬµéĢĢç¨İ": 4930,
      "èĵ¬": 4931,
      "é¥±åĴĮ": 4932,
      "äº²å¯Ĩ": 4933,
      "åĽ¢ä½ĵ": 4934,
      "æĬ¥èĢĥ": 4935,
      "æĬ¥å¤į": 4936,
      "æĶ¹æī©": 4937,
      "æ¯ķç«Ł": 4938,
      "å¯¹äºİéĩĳ": 4939,
      "å¯¹äºİåģ¥åº·ç§ĳæĻ®": 4940,
      "ä¾Ŀæ³ķ": 4941,
      "ä¾Ŀèµĸ": 4942,
      "æĪ¿ç§Łå¤ª": 4943,
      "åĿĩåĮĢ": 4944,
      "çĪ±æĥħ": 4945,
      "æ¨¡åŀĭçļĦåĲİ": 4946,
      "äºīåģļæĸ°æĹ¶ä»£": 4947,
      "æī¿åıĹ": 4948,
      "æī¿æı½": 4949,
      "æ°§åĪĨåŃĲ": 4950,
      "æĪĲä¸ºæİ¨åĬ¨": 4951,
      "æĪĲä¸ºä¸ĸçķĮ": 4952,
      "æĪĲä¸ºåĨ³å®ļ": 4953,
      "ä¼ģä¸ļçļĦæł¸å¿ĥç«ŀäºīåĬĽ": 4954,
      "é¦ĸä¸ª": 4955,
      "é¦ĸéĥ½å¸ĪèĮĥå¤§åŃ¦": 4956,
      "åħ¨éĿ¢åıĳå±ķ": 4957,
      "åħ¨éĿ¢å»ºè®¾ç¤¾ä¼ļä¸»ä¹īçİ°ä»£åĮĸ": 4958,
      "è¶³çĲĥä¿±ä¹Ĳéĥ¨": 4959,
      "åĬłå·¥åİĤ": 4960,
      "åĬłå·¥è®¾å¤ĩä½¿çĶ¨": 4961,
      "ä½¿çĶ¨æľ¬": 4962,
      "é£İæĻ¯": 4963,
      "é£İéĻ©": 4964,
      "è¿Ľé¡¹çķĻæĬµç¨İé¢Ŀä¸İç¨İæ¬¾æįŁå¤±": 4965,
      "æ»©æİĴ": 4966,
      "å®Įåħ¨": 4967,
      "å®Įç¾İ": 4968,
      "ä¸Ģå®ļç¨ĭåº¦ä¸Ĭ": 4969,
      "çĶŁæĦıå¥½": 4970,
      "è´¹çĶ¨": 4971,
      "è´Ńè¿Ľ": 4972,
      "çİ°ä»£æľºæ¢°åĪ¶éĢł": 4973,
      "çİ°ä»£ä¿¡æģ¯æĬĢæľ¯": 4974,
      "åĳ½åĲį": 4975,
      "åĳ½åĲįçļĦ": 4976,
      "æĸĩæĺİåıĳå±ķ": 4977,
      "å¼ĢåıĳåĴĮåĪ©çĶ¨": 4978,
      "è´¨éĩıæĦıè¯Ĩ": 4979,
      "ç¬¬ä¸Ģçº¿": 4980,
      "éĺ²æ°´": 4981,
      "éĺ²çģ«": 4982,
      "éĺ²çĪĨ": 4983,
      "éĺŁä¼į": 4984,
      "ä¸¤ä¸ªæľĪ": 4985,
      "æľºæ¢°CAD": 4986,
      "çħ§è§ģäºĶèķ´": 4987,
      "éĨļ": 4988,
      "éĨĭéħ¸": 4989,
      "äº«æľī": 4990,
      "åıĪæĺ¯": 4991,
      "åŃĺåľ¨çĿĢ": 4992,
      "åĪĿå¿ĥ": 4993,
      "ä¸ĢèĪ¬èĢĮè¨Ģ": 4994,
      "ä¸ĢåĢĭåı¥èĻŁ": 4995,
      "ä¸ĢåĢĭéĢĹèĻŁ": 4996,
      "ä¸ĢåĢĭåı¥åŃĲ": 4997,
      "æī¾ä¸Ģä¸ªåľ°æĸ¹": 4998,
      "éĢĻåĢĭ": 4999,
      "éĢĻç¨®": 5000,
      "åĩĨå¤ĩ": 5001,
      "ä¸ĬçļĦåİŁåĽł": 5002,
      "æĭĽæĶ¶": 5003,
      "è¶ħå¸Ĥ": 5004,
      "è¶ħè¶Ĭ": 5005,
      "æıĲåįĩä¸ŃåĽ½æĸĩçī©åĴĮ": 5006,
      "æĥħåĨµèī¯å¥½": 5007,
      "è°ĥæķ´": 5008,
      "è°ĥèĬĤ": 5009,
      "æİ§åĪ¶æĬĢæľ¯": 5010,
      "åĪĽæĸ°åĪĽä¸ļ": 5011,
      "æ¿ĢåĬ¨": 5012,
      "æ¿ĢæĢĴ": 5013,
      "åħ¥åºĵåĲİ": 5014,
      "åħ¥åºĵè¦ģæ±Ĥ": 5015,
      "åħ¥åºĵæĬķæłĩ": 5016,
      "åħ¥åºĵçļĦä¼ģä¸ļ": 5017,
      "1998": 5018,
      "1993": 5019,
      "æħ¨": 5020,
      "çĭł": 5021,
      "éłĵ": 5022,
      "éłŃ": 5023,
      "ä»ĬæĹ¥ä¹ĭä¸ŃåĽ½": 5024,
      "å¹²éĥ¨": 5025,
      "å¹²æī°": 5026,
      "æĹ©æĹ©": 5027,
      "å¿ĹæĦ¿": 5028,
      "èĩ´åĬĽäºİ": 5029,
      "è¿Ĳè¡ĮåĴĮ": 5030,
      "è¿ĺæĺ¯æľī": 5031,
      "æİĴæĶ¾æłĩåĩĨ": 5032,
      "æİĴæĶ¾çĤ¹å¤ļ": 5033,
      "æĬµæī£çļĦ": 5034,
      "å®īåħ¨çĶŁäº§": 5035,
      "å®īåħ¨æĦıè¯Ĩ": 5036,
      "å®īåħ¨åı¯éĿł": 5037,
      "å®īåħ¨éļĲæĤ£": 5038,
      "éĢĤåºĶçļĦ": 5039,
      "éĢĤåºĶçĶŁäº§ä¸Ģçº¿": 5040,
      "å§ĭç»Ī": 5041,
      "ä¸ĸçķĮä¸Ĭ": 5042,
      "å¨ĥ": 5043,
      "çļ®èĤ¤": 5044,
      "çļĦäººåĵģ": 5045,
      "æķħäºĭ": 5046,
      "äººæ°ĳæĹ¥çĽĬ": 5047,
      "äººæ°ĳå¸ģ": 5048,
      "è¯·ä½¿çĶ¨": 5049,
      "éĢŁåº¦": 5050,
      "äºĨä¸Ģç³»åĪĹ": 5051,
      "èĢĲçĶ¨æĢ§": 5052,
      "åĨľåľº": 5053,
      "åĨľæĿĳ": 5054,
      "ä¼ģä¸ļä¿¡æģ¯åĮĸæĺ¯ä¸Ģä¸ª": 5055,
      "æĹ¶ä»£çļĦ": 5056,
      "éģĩè§ģ": 5057,
      "è¶£åºĹ": 5058,
      "æıĲä¾Ľä¼ģä¸ļå¾ģä¿¡": 5059,
      "èĻļèį£": 5060,
      "åĮĹäº¬å¤§åŃ¦": 5061,
      "åĮĹäº¬å¸ĪèĮĥå¤§åŃ¦": 5062,
      "è¾¾åĪ°è®¡ç®Ĺæľºè¾ħåĬ©": 5063,
      "æķ°åŃĹåĮĸåĬłå·¥è®¾å¤ĩä½¿çĶ¨": 5064,
      "æ¼ł": 5065,
      "æļ´": 5066,
      "æļĹç¤º": 5067,
      "ç¢³": 5068,
      "æľīæľºèĥº": 5069,
      "æľīæķĪéĻįä½İ": 5070,
      "å¾Ģè¿Ķ": 5071,
      "ä¿®è¡Į": 5072,
      "çĽ´æİ¥": 5073,
      "æ²¹åİĤ": 5074,
      "æ²¹çĶ°": 5075,
      "æ²¹æ¼Ĩ": 5076,
      "ç§ĳåŃ¦ä¸İ": 5077,
      "ç§ĳåŃ¦çłĶç©¶åŁºåľ°": 5078,
      "ç§ĳæĬĢè¿ĽæŃ¥": 5079,
      "æĭīç§ĳé²": 5080,
      "å¾ĹåĪ°äºĨ": 5081,
      "æ¸ħæ°´": 5082,
      "éĩįè¦ģçļĦ": 5083,
      "éĩįçĤ¹åŃ¦ç§ĳ": 5084,
      "éĩįçĤ¹ä¸ŃåŃ¦": 5085,
      "è§ĦåĪĴçĽ®æłĩ": 5086,
      "æ¶Īæ³¡èĥ½åĬĽ": 5087,
      "èĥľåĪ©": 5088,
      "ä»»ä½ķæ¨Ļé»ŀç¬¦èĻŁ": 5089,
      "ä»»ä½ķçī©è´¨": 5090,
      "è®°èĢħå°±": 5091,
      "èĳĹçļĦ": 5092,
      "åĤ¨": 5093,
      "åĤ³": 5094,
      "åıĮä¸Ģæµģ": 5095,
      "åĪĻä»¥": 5096,
      "ä¹°äº²åŃĲç¥¨": 5097,
      "ä¸įæĸŃå¢ŀå¼º": 5098,
      "è¯»èĢħ": 5099,
      "è¯»ä¹¦": 5100,
      "è¯»ä¸ĢäºĽ": 5101,
      "åĨ·æ±ł": 5102,
      "åĨ·åĩĿ": 5103,
      "åĩıåħį": 5104,
      "æ²³åĮĹ": 5105,
      "æ²Ļæ»©æİĴ": 5106,
      "è¿ĻäºĽé¡¹çĽ®": 5107,
      "æķĻå¸ĪèµĦåĬ©": 5108,
      "ä»ĸçļĦåĦ¿åŃĲ": 5109,
      "æĦ¿æĦı": 5110,
      "ç½®çĿĢ": 5111,
      "ç½®å¤ĦçĲĨ": 5112,
      "å¸ĪèĮĥç±»éĻ¢æł¡": 5113,
      "å¸ĪèĮĥç±»ä¸ĵä¸ļæ¯ķä¸ļçĶŁ": 5114,
      "è¿ĲèĲ¥èĩªåĬ¨åĮĸ": 5115,
      "æīįèĥ½å¼º": 5116,
      "è¡¨éĿ¢ä¸Ĭ": 5117,
      "è°ģåħĪ": 5118,
      "éĴ¢ç»ĵæŀĦ": 5119,
      "éĴ¢éĵģ": 5120,
      "è¿Ļæł·çļĦæĪ¿ä¸ľ": 5121,
      "ç´łè´¨æķĻèĤ²": 5122,
      "æ»¡æĦı": 5123,
      "æĮīçħ§ç¨İæĶ¶": 5124,
      "ç»¼åĲĪèģĮä¸ļèĥ½åĬĽ": 5125,
      "åĭ¤": 5126,
      "çĨı": 5127,
      "èħ¾äºĨ": 5128,
      "çļĦæĺ¯è£ħå¤ĩ": 5129,
      "åĲ«ä¹ī": 5130,
      "ä¹ĻéĨĩ": 5131,
      "ä¹Ļçĥ·": 5132,
      "ä¹Ļéħ¸": 5133,
      "ä¹Ļéħ¯": 5134,
      "ä¹ĻéĨļ": 5135,
      "æľīäºĽæķ°æį®": 5136,
      "æī¹è¯Ħ": 5137,
      "æī¹è©ķ": 5138,
      "æĹ¢æĺ¯": 5139,
      "çº¢èī²": 5140,
      "çī©è´¨è´¢å¯Į": 5141,
      "éĻĲåĪ¶": 5142,
      "æĸ¹åĲĳçĽ¸éĢĤåºĶ": 5143,
      "ä¹Łæ²¡æľīå·²": 5144,
      "ä¹Łæ²¡æľīä»Ģä¹Ī": 5145,
      "éķ¿æ±ŁåŃ¦èĢħ": 5146,
      "ç¬¬ä¸īéĥ¨åĪĨ": 5147,
      "åıªæľīè¿Ļæł·": 5148,
      "åıªæľīéĴ±": 5149,
      "æĶ¿çŃĸåĴĮ": 5150,
      "æĶ¿çŃĸè§Ħå®ļ": 5151,
      "èģĶåĲĪåĬŀåŃ¦": 5152,
      "åĨ³çŃĸæĻºèĥ½åĮĸ": 5153,
      "çº³ç¨İæĥħåĨµèī¯å¥½": 5154,
      "è¾ĵéĢģè®¾å¤ĩ": 5155,
      "ç§¯æŀģå¼Ģå±ķ": 5156,
      "ç§¯æŀģæĦıä¹ī": 5157,
      "ä¸Ģå®ļçļĦåĪĨæķ°": 5158,
      "éĻįä½İåĻªéŁ³": 5159,
      "ç¨³å®ļåı¯éĿł": 5160,
      "äºļé©¬å°Ķå¤ļçº³å¤ļ": 5161,
      "åħįçĸ«": 5162,
      "å¤ªéĺ³": 5163,
      "å¤įåĲĪ": 5164,
      "å¤įæĿĤ": 5165,
      "ä¼´ä¾£": 5166,
      "ä¸ĢçĶŁçĽ¸": 5167,
      "è¯ģä¹¦": 5168,
      "åĽ½æ°ĳéĺŁ": 5169,
      "åĽ½æ°ĳä¿±ä¹Ĳéĥ¨": 5170,
      "åĽ½æ°ĳè¶³çĲĥä¿±ä¹Ĳéĥ¨": 5171,
      "æĿĳéĩĮ": 5172,
      "å¥ĸåĬ±": 5173,
      "è´¢æĶ¿": 5174,
      "ä¿ĥä½¿": 5175,
      "å¹´çļĦå¿«éĢĴ": 5176,
      "ä½ĵèĤ²åŃ¦": 5177,
      "åĵģè´¨èĩ³ä¸Ĭ": 5178,
      "æľ¬ç§ĳçĶŁ": 5179,
      "æľ¬ç§ĳæķĻåŃ¦": 5180,
      "åŃ¦çĶŁçļĦå¿ĥçĲĨçī¹çĤ¹": 5181,
      "å°±ä¸ļä¸»è¦ģéĿ¢åĲĳ": 5182,
      "éĢłçº¸åİĤ": 5183,
      "åħ·å¤ĩèģĮä¸ļçĶŁæ¶": 5184,
      "å¢ŀå¼ºä¼ģä¸ļçļĦæł¸å¿ĥç«ŀäºīåĬĽ": 5185,
      "ç¼ĸè¾ĳ": 5186,
      "çľĭåĪ°äºĨ": 5187,
      "æīĵåį°åľ¨": 5188,
      "å¿«éĢĴåĳĺçļĦ": 5189,
      "éĵĿåŀĭæĿĲ": 5190,
      "éĵĿåĲĪéĩĳåŀĭæĿĲ": 5191,
      "é¢Ħç¤ºçĿĢè´¢": 5192,
      "é¢Ħç¤ºçĿĢæľĢè¿ĳ": 5193,
      "çĹĽçĤ¹": 5194,
      "æĿ¡ä»¶ä¸ĭ": 5195,
      "èŀįåĲĪ": 5196,
      "èŀįåħ¥": 5197,
      "åħħåĪĨåĪ©çĶ¨": 5198,
      "åħħåĪĨåıĳæĮ¥": 5199,
      "3000": 5200,
      "éĸĢ": 5201,
      "ç»Īç«¯": 5202,
      "åį´è¢«": 5203,
      "æł¹æľ¬": 5204,
      "çĲĨå¿µåĴĮ": 5205,
      "è´ŁéĿ¢": 5206,
      "æ²Ĵæľīæ¨Ļé»ŀç¬¦èĻŁ": 5207,
      "æĬĢèĥ½äººæīį": 5208,
      "çĤ¼æ²¹åİĤ": 5209,
      "èģļåħ±è¯Ĩ": 5210,
      "èģļåľ¨ä¸Ģèµ·": 5211,
      "ç¡¬åº¦": 5212,
      "ç¡¬ä»¶": 5213,
      "åŁºæľ¬ä¸Ĭ": 5214,
      "è¿ĲåĬ¨åĳĺ": 5215,
      "åģ¥åº·æ£ĢæŁ¥çİĩä¸º": 5216,
      "æ¶ĪéĻ¤äºĨ": 5217,
      "å¦Īå¦Īè¿ĺæĺ¯": 5218,
      "èİ·å¾ĹèĢħ": 5219,
      "åĩĢåĮĸå¤ĦçĲĨ": 5220,
      "ç¬¬åĽĽè½®åŃ¦ç§ĳè¯Ħä¼°æľĢé«ĺè¯Ħçº§åŃ¦ç§ĳ": 5221,
      "éĶĢé¡¹ç¨İé¢ĿæĹ¶": 5222,
      "å©·": 5223,
      "æĩĪ": 5224,
      "çĵ¦": 5225,
      "äº¿ç¾İåħĥ": 5226,
      "å®½å®¹": 5227,
      "åĽ°éļ¾": 5228,
      "åĽ°æĥĳ": 5229,
      "ç»©æķĪ": 5230,
      "ä¸Ģæ¬¡æĢ§äº¤": 5231,
      "è®¸å¤ļ": 5232,
      "è®¸åı¯": 5233,
      "æľīåħ³éĥ¨éĹ¨": 5234,
      "ä¸įèī¯èµĦä¿¡è®°å½ķ": 5235,
      "çī¢è®°": 5236,
      "çī¢åĽº": 5237,
      "æĢ¥å¿Ļ": 5238,
      "æĢ¥åī§": 5239,
      "æī§çĿĢ": 5240,
      "å¿ĥç»ıåħ«åı¥ç»ıåħ¸": 5241,
      "æĪĲç«ĭäºİ": 5242,
      "çİ°å®ŀçļĦ": 5243,
      "å®ŀéĻħæİ§èĤ¡": 5244,
      "çľ¼çº¢": 5245,
      "åĪĨåŃĲçĶŁçī©åŃ¦": 5246,
      "ä¹Łä¸įçĲĨæĪĳä»¬": 5247,
      "éĢłæĪĲçļĦ": 5248,
      "éĢłæĪĲåĽ½å®¶ç¨İæ¬¾æįŁå¤±": 5249,
      "çŁŃæľŁçļĦ": 5250,
      "è½¬åŀĭåįĩçº§": 5251,
      "åįĹäº¬éĿĴå¥¥ä¼ļ": 5252,
      "ç½ĳç»ľæ¸¸æĪıäº§ä¸ļ": 5253,
      "æĿĲæĸĻéĩĩè´Ń": 5254,
      "æĿĲæĸĻä¾ĽåºĶåķĨ": 5255,
      "æĿĲæĸĻæĪĲåŀĭ": 5256,
      "åıįåºĶè¿ĩç¨ĭ": 5257,
      "ç»Ħç»ĩåŃ¦æł¡": 5258,
      "å¼ķå¯¼ä¼ļåĳĺ": 5259,
      "èīºæľ¯å¸ĤåľºçļĦ": 5260,
      "ç¬¦åĲĪè¦ģæ±ĤçļĦ": 5261,
      "çĪ±äººè§īå¾Ĺ": 5262,
      "éĨĩç±»": 5263,
      "åĪĿä¸Ńéĺ¶": 5264,
      "èĻļå¼ĢçļĦ": 5265,
      "çĮ®åªļ": 5266,
      "èħĲæľ½": 5267,
      "æĴĴ": 5268,
      "è²¡": 5269,
      "äºĪæĿĥ": 5270,
      "åĪļåĪļ": 5271,
      "åį±éĻ©": 5272,
      "åºĨç¥Ŀ": 5273,
      "è¯¸æ³ķ": 5274,
      "è¯¸ä½Ľ": 5275,
      "å¼Ĥè®®": 5276,
      "æ°¯ä»¿çŃī": 5277,
      "åĨ²çĿĢ": 5278,
      "åĨ²åĩ»": 5279,
      "åĮĸåŃ¦ä¸İ": 5280,
      "åıĳçĶŁäºĨ": 5281,
      "åıĳå¸ĥçļĦ": 5282,
      "åĵŃå¾Ĺ": 5283,
      "æŃ»çļĦå¿µå¤´": 5284,
      "ç»ıéªĮèĢħä¼ĺåħĪ": 5285,
      "åĪ¶åº¦åĴĮ": 5286,
      "æĭħå¿ĥ": 5287,
      "æĭħä»»": 5288,
      "åįļå£«çĤ¹": 5289,
      "åįļå£«åŃ¦ä½į": 5290,
      "æł¡åĽŃç»ıåħ¸": 5291,
      "éķ¿æĬķéĽĨåĽ¢": 5292,
      "æĹłéľĢæ·»åĬł": 5293,
      "ç¡ķå£«çĤ¹": 5294,
      "ç¡ķå£«åŃ¦ä½į": 5295,
      "æŃ£ç¡®çļĦ": 5296,
      "åį°åĪ·åİĤ": 5297,
      "æīĵéĢłæĽ´å¤ļçļĦ": 5298,
      "æķ´åĲĪåıĳå±ķ": 5299,
      "ç¦»å¼ĢäºĨ": 5300,
      "åĸ·å¢¨": 5301,
      "åĸ·æ¶Ĥ": 5302,
      "è®¤è¯ĨåĪ°": 5303,
      "éĵģäºº": 5304,
      "æĤŁåĪ°": 5305,
      "çĬ¶åĨµä¸ĭ": 5306,
      "çĪ¶åŃĲä¿©": 5307,
      "çĹħæŃ»çļĦå¿µå¤´": 5308,
      "æī¾åĪ°ç©ºä½į": 5309,
      "æĻ®éĢļéĵĿåĲĪéĩĳåŀĭæĿĲ": 5310,
      "æĲ¬è¿ĩæĿ¥": 5311,
      "éħįéĢģåĳĺ": 5312,
      "çĹĽèĭ¦åĴĮçĥ¦æģ¼": 5313,
      "éĿĴå¥¥ä¼ļçļĦ": 5314,
      "çĨŁæĤīçļĦæĹĭ": 5315,
      "çĨŁæĤīçİ°ä»£æľºæ¢°åĪ¶éĢł": 5316,
      "åı¦å¤ĸæī¾ä¸Ģä¸ªåľ°æĸ¹": 5317,
      "é£ŁåĵģåĬłå·¥åİĤ": 5318,
      "èĵĦçĥŃä½ĵ": 5319,
      "æľºçĶµä¸Ģä½ĵåĮĸä¸ĵä¸ļ": 5320,
      "æľºçĶµä¸Ģä½ĵåĮĸæĬĢæľ¯ä¸ĵä¸ļ": 5321,
      "çī¹æ®ĬçļĦ": 5322,
      "äººä¸İèĩªçĦ¶åĴĮè°Ĳåħ±çĶŁ": 5323,
      "985": 5324,
      "éŃħåĬĽ": 5325,
      "çļĦéĥ¨åĪĨåľºæ¬¡": 5326,
      "çļĦæĸĩåĮĸæ°´å¹³ä¸İç´łè´¨": 5327,
      "çĶ²éĨĩ": 5328,
      "çĶ²çĥ·": 5329,
      "ä½ĽéĻĢ": 5330,
      "ä¼¼çļĦåįļçī©é¦Ĩ": 5331,
      "åį¢æµ®": 5332,
      "åį¢åºļæĪ": 5333,
      "åº§åŁİå¸Ĥ": 5334,
      "ä¸Ńå¤®åĽ½åĬ¡éĻ¢": 5335,
      "ä¸Ńå¤®ç»ŁæĪĺ": 5336,
      "æīĺåħĭæĭī": 5337,
      "å¤§èĩªçĦ¶çļĦ": 5338,
      "äºĨä¸ŃåĽ½åħ±äº§åħļ": 5339,
      "çŃĳçī¢": 5340,
      "å¥ĭæĸĹ": 5341,
      "åĮĸå·¥åİĤ": 5342,
      "æİĪäºĪæĿĥ": 5343,
      "å®¶çººå¸ĥèīº": 5344,
      "åĩĿèģļåħ±è¯Ĩ": 5345,
      "å±ķçİ°å½ĵä»£ä¸ŃåĽ½": 5346,
      "æĪĲçĺ¾": 5347,
      "åĪĨç¦»çĦ¦èĻĳ": 5348,
      "ä½ľä¸ļç»ıéªĮèĢħä¼ĺåħĪ": 5349,
      "æ±ĩéĽĨ": 5350,
      "ç®Ģä»ĭ": 5351,
      "ä¸ŃåĽ½å·¥åķĨèģĶä¸»å¸Ń": 5352,
      "ä¸ŃåĽ½å·¥åķĨèģĶåħļç»Ħ": 5353,
      "åħ¨çĲĥè½®èĥİ": 5354,
      "ç»Łä¸ĢæĢĿæĥ³": 5355,
      "ç¾¤çļĦå·¥ä½ľ": 5356,
      "æľŁæľĽåĢ¼": 5357,
      "åķĨéĩıæĪ¿ç§Ł": 5358,
      "ä»£è¡¨å¤§ä¼ļ": 5359,
      "ä»£è¡¨äººæĪĸ": 5360,
      "èĪįåĪ©": 5361,
      "ä¸īä¸ĢçıŃ": 5362,
      "ä¸īä¸ĢéĽĨåĽ¢": 5363,
      "çľģåĨħå°±ä¸ļ": 5364,
      "çľģçº§åįļçī©é¦Ĩ": 5365,
      "ç½ĳåĲ§çļĦ": 5366,
      "èĲ½å®ŀ": 5367,
      "æĬķåħ¥ä¸įè¶³": 5368,
      "å®¤åĨħæ¸©åº¦": 5369,
      "éĢĤçĶ¨äºİ": 5370,
      "é»ĦéĩĳåĿĳ": 5371,
      "å§Ķå±Ī": 5372,
      "çľŁæŃ£å®ŀçİ°": 5373,
      "è¶ĬæĿ¥è¶Ĭå¤ļ": 5374,
      "é¥°åĵģåºĹ": 5375,
      "åĩłä¸ªæľĪ": 5376,
      "å²Ĺä½įç¾¤çļĦå·¥ä½ľ": 5377,
      "æħ¢æħ¢": 5378,
      "éģĩåĪ°æĹłèī¯": 5379,
      "å¡ĳæĸĻ": 5380,
      "çĭ¬çī¹æĢ§": 5381,
      "ç»¿èī²åıĳå±ķä¹ĭè·¯": 5382,
      "äº¿åħĥäººæ°ĳå¸ģ": 5383,
      "ä¸Ńåįİäººæ°ĳåħ±åĴĮåĽ½å®ªæ³ķ": 5384,
      "è´£ä»»å¿ĥ": 5385,
      "ç»§ç»ŃåıĳæĮ¥": 5386,
      "çĩĥæĸĻ": 5387,
      "çĩĥçĥ§": 5388,
      "ä¹Įåħĭåħ°æĢ»ç»Ł": 5389,
      "é«ĺå¾·åº·è¡¨ç¤º": 5390,
      "æĳĨ": 5391,
      "ç¿»": 5392,
      "é²ľ": 5393,
      "çļĦéĩįè§Ĩ": 5394,
      "çļĦè¿ĲçĶ¨åĴĮå¼Ģåıĳ": 5395,
      "çļĦè®¤çŁ¥": 5396,
      "çļĦæ¦Ĥå¿µåĴĮ": 5397,
      "ä»ĭç»į": 5398,
      "ä¸Ģéĥ¨åĪĨåŃ¦çĶŁ": 5399,
      "è®¿æĹ¶": 5400,
      "è®¿éĹ®": 5401,
      "åľ¨è¿Ļåľºæ¯ĶèµĽä¸Ń": 5402,
      "æĹĹä¸ĭ": 5403,
      "æłĳç«ĭ": 5404,
      "èµŀåĬ©": 5405,
      "å½¼å²¸": 5406,
      "æĪĲäººæĦŁ": 5407,
      "åĪĨç±»æĸ¹å¼ı": 5408,
      "è¡ĮæĶ¿å¤Ħç½ļ": 5409,
      "æŃ¦è£ħ": 5410,
      "æŃ¦æ±ī": 5411,
      "åģľæŃĩ": 5412,
      "é¡¾å®¢": 5413,
      "åĬłçĥŃåĪ°": 5414,
      "çŁ³æ²¹": 5415,
      "æ°´è½¬åį°çļĦ": 5416,
      "æ³ķäººä¼ģä¸ļ": 5417,
      "ä¸ĵä¸ļçļĦå°±ä¸ļä¸»è¦ģéĿ¢åĲĳ": 5418,
      "éĺ¿æ³¢è£¡": 5419,
      "æµģå¤±çļĦéĩĳé¢Ŀ": 5420,
      "éĶ»çĤ¼å¿ĥçĲĨåĵģè´¨": 5421,
      "ä¸īäººç¯®çĲĥèµĽ": 5422,
      "å¸ĪèĮĥå¤§åŃ¦ä¸İæ¹ĸåįĹå¸ĪèĮĥå¤§åŃ¦": 5423,
      "æ°ĳèĪªä¸ļ": 5424,
      "èĬ±äºĨ": 5425,
      "èĬ±é¦Ļ": 5426,
      "äºĮæ°¯ä¹Ļçĥ·": 5427,
      "äºĮæ°¯çĶ²çĥ·": 5428,
      "åŃ¦æł¡çļĦåĬŀåŃ¦": 5429,
      "åįģäºĮå¤§": 5430,
      "çº¸åªĴçļĦ": 5431,
      "ä¼łå¯¼ç³»æķ°ä¸º": 5432,
      "ä¼ĺç§Ģäººæīį": 5433,
      "èīºæľ¯åĵģå¸Ĥåľº": 5434,
      "æĤ£èĢħ": 5435,
      "å®¢æĪ·çļĦ": 5436,
      "æ·±åľ³ä¸ŃåŃ¦": 5437,
      "èªŀæ³ķ": 5438,
      "å¥¥è¥¿äºļçŁ¿æ³īæ°´": 5439,
      "æĭĽæłĩåħ¥åºĵ": 5440,
      "æķ°åŃĹåĮĸè®¾è®¡ä¸İåĪ¶éĢłä¸ĵä¸ļ": 5441,
      "æķ°åŃĹåĮĸè®¾è®¡ä¸İåĪ¶éĢłä¸ĵä¸ļçļĦå°±ä¸ļä¸»è¦ģéĿ¢åĲĳ": 5442,
      "åĲĥé¥Ń": 5443,
      "èıľé¸ŁèģĶçĽŁ": 5444,
      "éķ¿æ±Łç»ıæµİå¸¦çĶŁæĢģä¿ĿæĬ¤": 5445,
      "çĻ½çĻľé£İæĤ£èĢħ": 5446,
      "çĶ³è¯·è¿Ľé¡¹çķĻæĬµéĢĢç¨İ": 5447,
      "äººæīįåŁ¹åħ»åĴĮç§ĳåŃ¦çłĶç©¶åŁºåľ°": 5448,
      "è´§çī©è¿Ĳè¾ĵä»£çĲĨ": 5449,
      "è¿ľç¦»é¢łåĢĴ": 5450,
      "åĵªäºĽæĸ¹éĿ¢åŃĺåľ¨": 5451,
      "åģ¥åº·æ£ĢæŁ¥äººæķ°ä¸º": 5452,
      "è¯ļä¿¡éģĵå¾·": 5453,
      "åıĸå¾ĹäºĨè¿ĽçĲĥ": 5454,
      "èĻļå¼Ģå¢ŀåĢ¼ç¨İä¸ĵçĶ¨åıĳç¥¨æ¡Īä»¶ä¸Ń": 5455,
      "Dæīĵåį°è®¾å¤ĩæĵįä½ľ": 5456,
      "Dæīĵåį°è®¾å¤ĩè£ħè°ĥ": 5457,
      "åį±å®³ç»ĵæŀľ": 5458,
      "äºĶå¤§è¿ŀæ±łçŁ¿æ³īæ°´": 5459,
      "å¹¿ä¸ľçľģéĩįçĤ¹ä¸ŃåŃ¦": 5460,
      "å®īæħ°ä¸Ģä¸ĭ": 5461,
      "èŀºæĹĭè¾ĵéĢģæľºåľ¨åĬłå·¥": 5462,
      "åłĤ": 5463,
      "æ¤į": 5464,
      "æ©¡èĥ¶": 5465,
      "æĨİ": 5466,
      "èĨľ": 5467,
      "èļĢ": 5468,
      "ä¸°å¯Į": 5469,
      "ä¸¹ä¸ľé£Łåĵģæ¶Īæ³¡åīĤ": 5470,
      "çļĨç©º": 5471,
      "çļĦèĩªåĤ³": 5472,
      "çļĦä»·æł¼æĺ¯": 5473,
      "çļĦæķ°åŃĹå»ºæ¨¡": 5474,
      "ä»įéľĢ": 5475,
      "åĪĳäºĭå¤Ħç½ļ": 5476,
      "å®Īæ³ķ": 5477,
      "è¿Ŀæ³ķ": 5478,
      "åĲīæŀĹ": 5479,
      "åŃ¦åĴĮçĶµåŃĲåŃ¦ä¸º": 5480,
      "åŃ¦ä¸İåıĳèĤ²çĶŁçī©åŃ¦": 5481,
      "è®¢åįķ": 5482,
      "åįĥå¹´æĸĩæĺİ": 5483,
      "æĺ¯å·¥åķĨèģĶäºĭä¸ļ": 5484,
      "æľīäººä¸»å¼ł": 5485,
      "æľīèī¯å¥½çļĦè´£ä»»å¿ĥ": 5486,
      "äººæĸĩç¤¾ä¼ļç§ĳåŃ¦": 5487,
      "åľ¨æĪĳçľĭæĿ¥": 5488,
      "éĢĨåĲĳå·¥ç¨ĭ": 5489,
      "å¾ŀäºĭ": 5490,
      "å¼ĺæī¬ä¼ģä¸ļå®¶ç²¾ç¥ŀ": 5491,
      "çĲĨæĥ³ä¿¡å¿µ": 5492,
      "ä»¥ä¸ĭçĽ®æłĩ": 5493,
      "è´ªå¾ĹæĹł": 5494,
      "è´´è¿ĳ": 5495,
      "å·¥ç§įåĴĮ": 5496,
      "æİĮæı¡": 5497,
      "çºłæŃ£åĪĿä¸Ń": 5498,
      "çŃīèģĮä¸ļåıĬçĽ¸åħ³": 5499,
      "å¹´é¢ģå¸ĥçļĦ": 5500,
      "é«ĺçº§èģĮä¸ļèµĦæł¼è¦ģæ±Ĥ": 5501,
      "å»ºè®®ä½ł": 5502,
      "éģµå¾ª": 5503,
      "éģľçī§å¸«": 5504,
      "éģŃéģĩ": 5505,
      "æĬĢæľ¯åºĶçĶ¨æĢ§ä¸ĵéĹ¨äººæīį": 5506,
      "ä¿¡èµĸçļĦ": 5507,
      "çĥĺæĪ¿": 5508,
      "æĭ¼åĳ½": 5509,
      "å¼Ģå¹ķå¼ı": 5510,
      "æııå¯«": 5511,
      "åķıèĻŁ": 5512,
      "æĹłæľīæģĲæĢĸ": 5513,
      "æ³ķå¾ĭæ³ķè§Ħ": 5514,
      "åĨħå¿ĥæ´»åĬ¨": 5515,
      "ä¸ĭä¸Ģè½®åŃ¦ç§ĳè¯Ħä¼°": 5516,
      "å¾Īå¿«äºĨ": 5517,
      "å¾Īéļ¾å½¢æĪĲ": 5518,
      "ç¾İåĽ½å¤§éĥ½ä¼ļ": 5519,
      "ç¾İåħ¨éĿ¢åıĳå±ķçļĦåħ·æľīä¸İè¯¥": 5520,
      "äºĭå®ŀä¸Ĭ": 5521,
      "çĦ¡éĻĲ": 5522,
      "ä¸īä¸ĸè¯¸ä½Ľ": 5523,
      "éªĦåĤ²èĩªè´Ł": 5524,
      "éĹ´æŃĩæĢ§æİĴæĶ¾": 5525,
      "åİ»å¹´åĲĮæľŁ": 5526,
      "èĩªå·±åľ¨åĵªäºĽæĸ¹éĿ¢åŃĺåľ¨": 5527,
      "æİĴé£İåĬ¨åĬĽ": 5528,
      "æŃ£æĸ°è½®èĥİ": 5529,
      "åĢ¼å¾Ĺä¿¡èµĸçļĦ": 5530,
      "è½¬åĮĸæĪĲ": 5531,
      "åĮħè£¹": 5532,
      "èĭ¯ç³»çī©": 5533,
      "ä½İäºİæĻ®éĢļéĵĿåĲĪéĩĳåŀĭæĿĲ": 5534,
      "èĥĨæĢ¯çķı": 5535,
      "ç§ŁæĪ¿äºº": 5536,
      "åįģä¸ĢäºĶ": 5537,
      "åįģåĽĽäºĶ": 5538,
      "èº«è¾¹çļĦ": 5539,
      "æĪ¿ä¸ľäººåĵģä¸įå¥½": 5540,
      "éĤĦæľī": 5541,
      "ä¹¦è®°å¾Ĳä¹Ĳæ±Ł": 5542,
      "åį³å°ĨåĪ°æĿ¥çļĦ": 5543,
      "çĬ¯è§Ħ": 5544,
      "åįİä¸ľå¸ĪèĮĥå¤§åŃ¦": 5545,
      "åĶ®ç¥¨å¤Ħ": 5546,
      "å°±æĺ¯çİ«çĳ°å°±æĺ¯çİ«çĳ°": 5547,
      "åĪĿä¸ĢåŃ¦çĶŁ": 5548,
      "æ¯ķä¸ļåŃ£": 5549,
      "æĹ©å·²åįĸåħī": 5550,
      "éĢĢæİīåºĹéĿ¢": 5551,
      "èİ·å¥ĸè¯ģä¹¦": 5552,
      "ç¢°ä¸Ĭ": 5553,
      "å¾Ģå¾Ģä¼ļ": 5554,
      "éĹ¨ç¥¨éĶĢåĶ®ä¸Ģç©º": 5555,
      "è·¨è¶Ĭå¼ıåıĳå±ķæĢģåĬ¿": 5556,
      "æ²³æºĲå¸ĤåĽ½æ°ĳ": 5557,
      "ä¹ĭéĹ´çĽ¸å·®": 5558,
      "èı©èĲ": 5559,
      "æ±īè¯Ńè¨ĢæĸĩåŃĹ": 5560,
      "ä½Ļä¸ĩåĨĮ": 5561,
      "éĸĭå§ĭ": 5562,
      "çĻ¾ç§ĳåħ¨ä¹¦": 5563,
      "è¶ħè¿ĩéĻķè¥¿å¸ĪèĮĥå¤§åŃ¦ä¸İæ¹ĸåįĹå¸ĪèĮĥå¤§åŃ¦": 5564,
      "æ¶Īæ³¡åīĤçļĦæ¶Īæ³¡": 5565,
      "çººç»ĩæľįè£ħåķĨä¼ļ": 5566,
      "éĻ¶çĵ·èĵĦçĥŃä½ĵ": 5567,
      "ä¸Ńåįİäººæ°ĳåħ±åĴĮåĽ½å¢ĥåĨħæ³¨åĨĮ": 5568,
      "ç¨ĭåº¦ä¸Ĭå½±åĵįäºĨ": 5569,
      "å°¤åħ¶æĺ¯": 5570,
      "çİ»çĴĥç»ĵæŀĦ": 5571,
      "æĹłæĮĤç¢įæķħ": 5572,
      "ç½ĳç»ľæĪĲçĺ¾çļĦæ²»çĸĹ": 5573,
      "æķ°æİ§åĬłå·¥ä¸Ńå¿ĥåıĬåħ¶å®ĥæķ°æİ§è®¾å¤ĩçļĦæĵįä½ľç»´ä¿®": 5574,
      "çĶµæ°ĶèĩªåĬ¨åĮĸå®īè£ħä¸İç»´æĬ¤ä¸ĵä¸ļ": 5575,
      "èĽĭçĻ½è´¨ç»Ħ": 5576,
      "DMF": 5577,
      "Pinnacle": 5578,
      "kå¤§å¤§ä½İäºİæĻ®éĢļéĵĿåĲĪéĩĳåŀĭæĿĲ": 5579,
      "¯åıĳå±ķçļĦé«ĺç´łè´¨": 5580,
      "¶è£ħæ°´": 5581,
      "çį¨": 5582,
      "çŀ¬éĹ´": 5583,
      "è¸ıå®ŀ": 5584,
      "ģå°¼äºļé©¬å°Ķå¤ļçº³å¤ļ": 5585,
      "ĳä¸ĩç»´": 5586,
      "çļĦéĤ»": 5587,
      "çļĦéĩĩéĽĨ": 5588,
      "çļĦæ¯ĶèµĽä¸Ń": 5589,
      "çļĦåħ¸èĮĥ": 5590,
      "çļĦçĭ¬ç«ĭæ³ķäººä¼ģä¸ļ": 5591,
      "çļĦåĽłç¼ĺæīĢ": 5592,
      "çļĦæķ°åŃĹåĮĸè½¬åŀĭè·¨è¶Ĭå¼ıåıĳå±ķæĢģåĬ¿": 5593,
      "åŃ¤åĥ»": 5594,
      "å®«è¿Ļç§įçĻ¾ç§ĳåħ¨ä¹¦": 5595,
      "æĺĨä»ĳä¸ĩç»´": 5596,
      "åĲķç»įèģª": 5597,
      "ä¸Ģä¹¦ä¸ŃæıĲåĪ°": 5598,
      "æĺ¯æĺİæĻº": 5599,
      "æĺ¯åŁ¹åħ»ä»¥æľºæ¢°": 5600,
      "æľīåĬ©äºİ": 5601,
      "æľīåĩºåħ¥çļĦ": 5602,
      "ä¸įçĶŁä¸į": 5603,
      "ä¸įè§£çļĦå¿µå¤´": 5604,
      "ä¸įå¢ŀä¸įåĩı": 5605,
      "å·§åħĭåĬĽå¤§çİĭ": 5606,
      "ä¸Ńç©ºçİ»çĴĥç»ĵæŀĦ": 5607,
      "ä¸Ńåħ±ä¸Ńå¤®åĽ½åĬ¡éĻ¢": 5608,
      "äººæĹłä¸įèī¯èµĦä¿¡è®°å½ķ": 5609,
      "åľ¨è¿Ľè¡ĮèģĮä¸ļæķĻèĤ²æĹ¶è¾¾åĪ°": 5610,
      "çĶŁèĢģçĹħæŃ»çļĦå¿µå¤´": 5611,
      "åĴĸåķ¡": 5612,
      "åĴĮæ³ķäººä¸ªäººå¾ģä¿¡": 5613,
      "å¤§åºĨæ²¹çĶ°": 5614,
      "äºĨåħļæĢ§": 5615,
      "è¦ģå¥½å¥½çļĦæĬĬæı¡": 5616,
      "èĥ½ä½¿äºº": 5617,
      "èĥ½èĥľä»»äº§åĵģ": 5618,
      "åĮĸç®¡æİ§": 5619,
      "ä¸ªäºĮçº§åŃ¦ç§ĳ": 5620,
      "ä»¥æ»¡è¶³äººæ°ĳæĹ¥çĽĬ": 5621,
      "å·¥èĸª": 5622,
      "å¤ļå¹´åİĨåı²": 5623,
      "å¤ļåıĺæĢ§": 5624,
      "å¤ļå¸ĥéģľçī§å¸«": 5625,
      "å¤ļè¯»å¥½ä¹¦": 5626,
      "çŃīå·¥ä½ľä»»åĬ¡": 5627,
      "åĪ°åĲİæĿ¥": 5628,
      "ä¸Ĭçĺ¾": 5629,
      "ä¸Ĭåº§çİĩ": 5630,
      "å¹´ä»¥ä¸Ĭå½ĵåľ°å¹²": 5631,
      "åı¯æĮģç»Ńåıĳå±ķ": 5632,
      "æĢ§åĪ«ä¹ĭéĹ´çĽ¸å·®": 5633,
      "æĢ§ä»·æ¯Ķ": 5634,
      "é«ĺèĢĥå¿ĹæĦ¿": 5635,
      "é«ĺäºĳé¾Ļ": 5636,
      "ä¼ģä¸ļåıĬä¼ģä¸ļæ³ķå®ļ": 5637,
      "èī¾éºĹæĸ¯": 5638,
      "è¿ĩæ»¤": 5639,
      "å¯¹åĨ³åı¯èĥ½ä¼ļ": 5640,
      "åıĳå±ķåīįæĻ¯": 5641,
      "åĳ¼åĲģ": 5642,
      "çĤ«èĢĢ": 5643,
      "ä¸ŃåĽ½çİ°å½ĵä»£æĸĩåŃ¦": 5644,
      "åħ¨æĹ¥åĪ¶": 5645,
      "éĥĳéĩįå®£": 5646,
      "åįļå½©åħ¬åı¸": 5647,
      "éĥ¨åī¯éĥ¨éķ¿": 5648,
      "ç»ŁçŃ¹è§ĦåĪĴ": 5649,
      "å°±éļıä¹ĭ": 5650,
      "åħ¶çĥŃä¼łå¯¼ç³»æķ°ä¸º": 5651,
      "æĻıç´«ä¸ľ": 5652,
      "å¸Ĥå±ŀåŃ¦æł¡": 5653,
      "æĹłç»Ħç»ĩæİĴæĶ¾": 5654,
      "æīĢè°ĵ": 5655,
      "æīĢåħ³æ³¨çļĦ": 5656,
      "ä»İç¨İæ¬¾æįŁå¤±ä¸Ńåī": 5657,
      "ä¿¡æģ¯çļĦæĶ¶éĽĨ": 5658,
      "ç¬¬åįģäºĮæ¬¡åħ¨åĽ½": 5659,
      "ä¸ĵä¸ļé¢ĨåŁŁæĸ¹åĲĳçĽ¸éĢĤåºĶ": 5660,
      "éļ¨å¿ĥæīĢæ¬²": 5661,
      "çĥŃåįĩåįİ": 5662,
      "åĽ½å®¶éĤ®æĶ¿å±Ģ": 5663,
      "åĽ½å®¶æĸ°å¾ģç¨ĭ": 5664,
      "ç®¡çĲĨåįıè°ĥèĥ½åĬĽ": 5665,
      "è°¨æħİ": 5666,
      "æµģåªĴä½ĵä½ľä¸ļç»ıéªĮèĢħä¼ĺåħĪ": 5667,
      "ç±»åŀĭåįķä¸Ģ": 5668,
      "æ²¡æľīAç±»åŃ¦ç§ĳ": 5669,
      "åı¯ä»¥åĢŁåĬ©": 5670,
      "è§Ĥèĩ´å®¶åħ·": 5671,
      "è§Ĥèĩªåľ¨èı©èĲ": 5672,
      "éĴ¥åĮĻ": 5673,
      "æĪĸè®¡ç®Ĺæľºè¾ħåĬ©åĪ¶éĢł": 5674,
      "åħ·æľīèī¯å¥½çļĦç»¼åĲĪèģĮä¸ļèĥ½åĬĽ": 5675,
      "åħ·æľīæľºçĶµä¸Ģä½ĵåĮĸäº§åĵģåĴĮæĬĢæľ¯": 5676,
      "æĮĩæĺİäºĨåīįè¿Ľæĸ¹åĲĳ": 5677,
      "äºĮæ°§åĮĸç¢³": 5678,
      "è®©æĽ´å¤ļçļĦä¸ĵå®¶": 5679,
      "éĻ¢éĻ¢å£«": 5680,
      "éĤ¸å®ħ": 5681,
      "éĩĳå¿Ĺæĸĩ": 5682,
      "è¦ģæ±Ĥä»İä¸ļäººåĳĺåľ¨è¿Ľè¡ĮèģĮä¸ļæķĻèĤ²æĹ¶è¾¾åĪ°": 5683,
      "çĸĳæĥĳä¸įè§£çļĦå¿µå¤´": 5684,
      "ä»¥åıĬä¸Ģå®ļçļĦç®¡çĲĨåįıè°ĥèĥ½åĬĽ": 5685,
      "ç©¶ç«Łæ¶ħ": 5686,
      "ç»Łè®¡åı£å¾Ħ": 5687,
      "èĥ½åĬĽçļĦé«ĺçŃīæĬĢæľ¯åºĶçĶ¨æĢ§ä¸ĵéĹ¨äººæīį": 5688,
      "ä¸įåĲĮé¢ľèī²çļĦ": 5689,
      "åħ¨åĽ½å¦ĩèģĶ": 5690,
      "èģĮä¸ļæľįè£ħå±ķ": 5691,
      "æķ°æİ§è½¦æĸ¹åĲĳ": 5692,
      "å½±åĵįèĮĥåĽ´å¹¿": 5693,
      "èĥ½å¤Łå¼Ģåħ·ç¬¦åĲĪè¦ģæ±ĤçļĦ": 5694,
      "æ·±åĪ»è®¤è¯ĨåĪ°": 5695,
      "æĶ¹æī©å»º": 5696,
      "æ¨¡åŀĭçļĦåĲİç½®å¤ĦçĲĨ": 5697,
      "äºīåģļæĸ°æĹ¶ä»£è¡¨çİĩ": 5698,
      "åħ¨éĿ¢å»ºè®¾ç¤¾ä¼ļä¸»ä¹īçİ°ä»£åĮĸåĽ½å®¶æĸ°å¾ģç¨ĭ": 5699,
      "è¿Ľé¡¹çķĻæĬµç¨İé¢Ŀä¸İç¨İæ¬¾æįŁå¤±ä¹ĭéĹ´": 5700,
      "å¼ĢåıĳåĴĮåĪ©çĶ¨ä¿¡æģ¯": 5701,
      "çħ§è§ģäºĶèķ´çļĨç©º": 5702,
      "æ¿ĢæĢĴäºĨ": 5703,
      "å®īåħ¨æĦıè¯Ĩä»¥åıĬä¸Ģå®ļçļĦç®¡çĲĨåįıè°ĥèĥ½åĬĽ": 5704,
      "éĢĤåºĶçĶŁäº§ä¸Ģçº¿æľºæ¢°åĪ¶éĢł": 5705,
      "å§ĭç»ĪåĿļæĮģ": 5706,
      "æıĲä¾Ľä¼ģä¸ļå¾ģä¿¡åĴĮæ³ķäººä¸ªäººå¾ģä¿¡": 5707,
      "è¾¾åĪ°è®¡ç®Ĺæľºè¾ħåĬ©è®¾è®¡": 5708,
      "æķ°åŃĹåĮĸåĬłå·¥è®¾å¤ĩä½¿çĶ¨çŃīå·¥ä½ľä»»åĬ¡": 5709,
      "æĭīç§ĳé²ģå°¼äºļé©¬å°Ķå¤ļçº³å¤ļ": 5710,
      "åıĮä¸Ģæµģå»ºè®¾é«ĺæł¡": 5711,
      "åĨ·æ±łåĵģçīĮ": 5712,
      "æ²Ļæ»©æİĴçĲĥ": 5713,
      "æķĻå¸ĪèµĦåĬ©è®¡åĪĴ": 5714,
      "å¸ĪèĮĥç±»ä¸ĵä¸ļæ¯ķä¸ļçĶŁçľģåĨħå°±ä¸ļ": 5715,
      "æĮīçħ§ç¨İæĶ¶æĶ¿çŃĸè§Ħå®ļ": 5716,
      "çļĦæĺ¯è£ħå¤ĩåĪ¶éĢłä¸ļ": 5717,
      "ä¹Ļéħ¸ä¹Ļéħ¯": 5718,
      "æī¹è©ķå®¶": 5719,
      "åħįçĸ«åĬŁèĥ½": 5720,
      "åħ·å¤ĩèģĮä¸ļçĶŁæ¶¯åıĳå±ķçļĦé«ĺç´łè´¨": 5721,
      "æĢ¥åī§åıĺåĮĸ": 5722,
      "å®ŀéĻħæİ§èĤ¡äººæĹłä¸įèī¯èµĦä¿¡è®°å½ķ": 5723,
      "æĿĲæĸĻæĪĲåŀĭçŃīèģĮä¸ļåıĬçĽ¸åħ³": 5724,
      "å¼ķå¯¼ä¼ļåĳĺä¼ģä¸ļ": 5725,
      "åĪĿä¸Ńéĺ¶æ®µ": 5726,
      "åįļå£«åŃ¦ä½įæİĪäºĪæĿĥ": 5727,
      "æĹłéľĢæ·»åĬłä»»ä½ķçī©è´¨": 5728,
      "çĨŁæĤīçļĦæĹĭå¾ĭ": 5729,
      "çĨŁæĤīçİ°ä»£æľºæ¢°åĪ¶éĢłçļĦåŁºæľ¬çĲĨè®º": 5730,
      "æľºçĶµä¸Ģä½ĵåĮĸæĬĢæľ¯ä¸ĵä¸ļæĺ¯åŁ¹åħ»ä»¥æľºæ¢°": 5731,
      "åį¢æµ®å®«è¿Ļç§įçĻ¾ç§ĳåħ¨ä¹¦": 5732,
      "åį¢åºļæĪĮ": 5733,
      "ä¸Ńå¤®ç»ŁæĪĺéĥ¨åī¯éĥ¨éķ¿": 5734,
      "æīĺåħĭæĭīæĸ¯": 5735,
      "ä¸ŃåĽ½å·¥åķĨèģĶä¸»å¸Ńé«ĺäºĳé¾Ļ": 5736,
      "ä¸ŃåĽ½å·¥åķĨèģĶåħļç»Ħä¹¦è®°å¾Ĳä¹Ĳæ±Ł": 5737,
      "åħ¨çĲĥè½®èĥİä¼ģä¸ļ": 5738,
      "ä»£è¡¨äººæĪĸå®ŀéĻħæİ§èĤ¡äººæĹłä¸įèī¯èµĦä¿¡è®°å½ķ": 5739,
      "éģĩåĪ°æĹłèī¯æĪ¿ä¸ľ": 5740,
      "çļĦè¿ĲçĶ¨åĴĮå¼Ģåıĳèĥ½åĬĽçļĦé«ĺçŃīæĬĢæľ¯åºĶçĶ¨æĢ§ä¸ĵéĹ¨äººæīį": 5741,
      "ä»ĭç»įäºĨ": 5742,
      "éĺ¿æ³¢è£¡èĢĲ": 5743,
      "æķ°åŃĹåĮĸè®¾è®¡ä¸İåĪ¶éĢłä¸ĵä¸ļçļĦå°±ä¸ļä¸»è¦ģéĿ¢åĲĳçļĦæĺ¯è£ħå¤ĩåĪ¶éĢłä¸ļ": 5744,
      "éķ¿æ±Łç»ıæµİå¸¦çĶŁæĢģä¿ĿæĬ¤åĴĮ": 5745,
      "è¿ľç¦»é¢łåĢĴæ¢¦æĥ³": 5746,
      "åŃ¦åĴĮçĶµåŃĲåŃ¦ä¸ºåŁºç¡Ģ": 5747,
      "éĢĨåĲĳå·¥ç¨ĭä¸İè®¾è®¡": 5748,
      "è´ªå¾ĹæĹłåİĮ": 5749,
      "çºłæŃ£åĪĿä¸ŃåŃ¦çĶŁçļĦ": 5750,
      "ç¾İåħ¨éĿ¢åıĳå±ķçļĦåħ·æľīä¸İè¯¥ä¸ĵä¸ļé¢ĨåŁŁæĸ¹åĲĳçĽ¸éĢĤåºĶ": 5751,
      "èĥĨæĢ¯çķıæĥ§": 5752,
      "çļĦæķ°åŃĹåĮĸè½¬åŀĭè·¨è¶Ĭå¼ıåıĳå±ķæĢģåĬ¿æĺ¾çİ°": 5753,
      "å¤§åºĨæ²¹çĶ°åĨľåľº": 5754,
      "èĥ½èĥľä»»äº§åĵģçļĦæķ°åŃĹå»ºæ¨¡": 5755,
      "ä»¥æ»¡è¶³äººæ°ĳæĹ¥çĽĬå¢ŀéķ¿": 5756,
      "å¹´ä»¥ä¸Ĭå½ĵåľ°å¹²æµģåªĴä½ĵä½ľä¸ļç»ıéªĮèĢħä¼ĺåħĪ": 5757,
      "ä¼ģä¸ļåıĬä¼ģä¸ļæ³ķå®ļä»£è¡¨äººæĪĸå®ŀéĻħæİ§èĤ¡äººæĹłä¸įèī¯èµĦä¿¡è®°å½ķ": 5758,
      "ç¬¬åįģäºĮæ¬¡åħ¨åĽ½ä»£è¡¨å¤§ä¼ļ": 5759,
      "åħ·æľīæľºçĶµä¸Ģä½ĵåĮĸäº§åĵģåĴĮæĬĢæľ¯çļĦè¿ĲçĶ¨åĴĮå¼Ģåıĳèĥ½åĬĽçļĦé«ĺçŃīæĬĢæľ¯åºĶçĶ¨æĢ§ä¸ĵéĹ¨äººæīį": 5760,
      "è¦ģæ±Ĥä»İä¸ļäººåĳĺåľ¨è¿Ľè¡ĮèģĮä¸ļæķĻèĤ²æĹ¶è¾¾åĪ°ä»¥ä¸ĭçĽ®æłĩ": 5761,
      "èĥ½å¤Łå¼Ģåħ·ç¬¦åĲĪè¦ģæ±ĤçļĦå¢ŀåĢ¼ç¨İä¸ĵçĶ¨åıĳç¥¨": 5762,
      "åħ·å¤ĩèģĮä¸ļçĶŁæ¶¯åıĳå±ķçļĦé«ĺç´łè´¨æĬĢæľ¯": 5763,
      "æĿĲæĸĻæĪĲåŀĭçŃīèģĮä¸ļåıĬçĽ¸åħ³å·¥ç§įåĴĮ": 5764,
      "æľºçĶµä¸Ģä½ĵåĮĸæĬĢæľ¯ä¸ĵä¸ļæĺ¯åŁ¹åħ»ä»¥æľºæ¢°åŃ¦åĴĮçĶµåŃĲåŃ¦ä¸ºåŁºç¡Ģ": 5765,
      "åį¢æµ®å®«è¿Ļç§įçĻ¾ç§ĳåħ¨ä¹¦ä¼¼çļĦåįļçī©é¦Ĩ": 5766,
      "ç¾İåħ¨éĿ¢åıĳå±ķçļĦåħ·æľīä¸İè¯¥ä¸ĵä¸ļé¢ĨåŁŁæĸ¹åĲĳçĽ¸éĢĤåºĶçļĦæĸĩåĮĸæ°´å¹³ä¸İç´łè´¨": 5767
    },
    "merges": [
      [
        "ä",
        "¸"
      ],
      [
        "ã",
        "Ģ"
      ],
      [
        "ç",
        "ļ"
      ],
      [
        "çļ",
        "Ħ"
      ],
      [
        "ä",
        "º"
      ],
      [
        "ãĢ",
        "ģ"
      ],
      [
        "æ",
        "ľ"
      ],
      [
        "ãĢ",
        "Ĥ"
      ],
      [
        "å",
        "ħ"
      ],
      [
        "å",
        "¤"
      ],
      [
        "ä",
        "»"
      ],
      [
        "å",
        "ı"
      ],
      [
        "å",
        "Ń"
      ],
      [
        "å",
        "Ī"
      ],
      [
        "å",
        "®"
      ],
      [
        "è",
        "¿"
      ],
      [
        "ç",
        "Ķ"
      ],
      [
        "ä",
        "½"
      ],
      [
        "æ",
        "ĺ"
      ],
      [
        "å",
        "Ľ"
      ],
      [
        "å",
        "ľ"
      ],
      [
        "ç",
        "»"
      ],
      [
        "ä",
        "¼"
      ],
      [
        "æ",
        "Ī"
      ],
      [
        "å",
        "Ĭ"
      ],
      [
        "å",
        "Ĳ"
      ],
      [
        "åŃ",
        "¦"
      ],
      [
        "ä¸",
        "Ģ"
      ],
      [
        "è",
        "®"
      ],
      [
        "æ",
        "ĸ"
      ],
      [
        "ä",
        "¹"
      ],
      [
        "å",
        "į"
      ],
      [
        "æĺ",
        "¯"
      ],
      [
        "æľ",
        "ī"
      ],
      [
        "å",
        "º"
      ],
      [
        "ä¸",
        "ļ"
      ],
      [
        "æ",
        "ķ"
      ],
      [
        "ä¸",
        "į"
      ],
      [
        "å",
        "Į"
      ],
      [
        "å",
        "·"
      ],
      [
        "ä¸",
        "Ń"
      ],
      [
        "äº",
        "º"
      ],
      [
        "å",
        "¸"
      ],
      [
        "å",
        "¹"
      ],
      [
        "åľ",
        "¨"
      ],
      [
        "ç",
        "ī"
      ],
      [
        "æ",
        "Ĭ"
      ],
      [
        "çĶ",
        "Ł"
      ],
      [
        "å",
        "Ĵ"
      ],
      [
        "æ",
        "Ģ"
      ],
      [
        "æ",
        "ī"
      ],
      [
        "æ",
        "Ĺ"
      ],
      [
        "åĴ",
        "Į"
      ],
      [
        "è",
        "¯"
      ],
      [
        "é",
        "Ģ"
      ],
      [
        "å¤",
        "§"
      ],
      [
        "ç",
        "§"
      ],
      [
        "å",
        "°"
      ],
      [
        "ç",
        "Ĳ"
      ],
      [
        "å",
        "¿"
      ],
      [
        "ĥ",
        "½"
      ],
      [
        "æ",
        "ł"
      ],
      [
        "â",
        "Ģ"
      ],
      [
        "å",
        "¾"
      ],
      [
        "åĽ",
        "½"
      ],
      [
        "å",
        "±"
      ],
      [
        "æ",
        "Ŀ"
      ],
      [
        "äº",
        "Ĩ"
      ],
      [
        "å",
        "¼"
      ],
      [
        "ç",
        "¨"
      ],
      [
        "è",
        "§"
      ],
      [
        "è",
        "¦"
      ],
      [
        "æ",
        "°"
      ],
      [
        "çĲ",
        "Ĩ"
      ],
      [
        "ç",
        "İ"
      ],
      [
        "é",
        "ĩ"
      ],
      [
        "è¦",
        "ģ"
      ],
      [
        "ä¸",
        "º"
      ],
      [
        "è",
        "¡"
      ],
      [
        "ç",
        "Ń"
      ],
      [
        "è",
        "µ"
      ],
      [
        "å",
        "¥"
      ],
      [
        "è",
        "ĥ½"
      ],
      [
        "è",
        "Ģ"
      ],
      [
        "å",
        "¯"
      ],
      [
        "å",
        "Ĩ"
      ],
      [
        "åĮ",
        "ĸ"
      ],
      [
        "ä¸",
        "ª"
      ],
      [
        "ä»",
        "¥"
      ],
      [
        "åı",
        "ĳ"
      ],
      [
        "è",
        "ĩ"
      ],
      [
        "è",
        "´"
      ],
      [
        "å·",
        "¥"
      ],
      [
        "ä¼",
        "ļ"
      ],
      [
        "é",
        "Ŀ"
      ],
      [
        "æ",
        "İ"
      ],
      [
        "å®",
        "¶"
      ],
      [
        "å",
        "İ"
      ],
      [
        "ç",
        "º"
      ],
      [
        "å",
        "ĩ"
      ],
      [
        "é",
        "Ĺ"
      ],
      [
        "å",
        "ĵ"
      ],
      [
        "é",
        "¢"
      ],
      [
        "çĶ",
        "¨"
      ],
      [
        "å",
        "½"
      ],
      [
        "ä",
        "¿"
      ],
      [
        "çī",
        "©"
      ],
      [
        "æ",
        "³"
      ],
      [
        "ç",
        "Ľ"
      ],
      [
        "å¤",
        "ļ"
      ],
      [
        "çŃ",
        "ī"
      ],
      [
        "é",
        "Ļ"
      ],
      [
        "åĪ",
        "°"
      ],
      [
        "å",
        "Ł"
      ],
      [
        "å¿",
        "ĥ"
      ],
      [
        "ä¸",
        "Ĭ"
      ],
      [
        "æ",
        "ĥ"
      ],
      [
        "è¿",
        "Ľ"
      ],
      [
        "å±",
        "ķ"
      ],
      [
        "æĪ",
        "ĳ"
      ],
      [
        "æ",
        "Ķ"
      ],
      [
        "æĪ",
        "Ĳ"
      ],
      [
        "å¹",
        "´"
      ],
      [
        "çİ",
        "°"
      ],
      [
        "ä½",
        "ĵ"
      ],
      [
        "åı",
        "¯"
      ],
      [
        "æ",
        "²"
      ],
      [
        "å®",
        "ŀ"
      ],
      [
        "æ",
        "µ"
      ],
      [
        "èĩ",
        "ª"
      ],
      [
        "æľ",
        "¯"
      ],
      [
        "è®",
        "¾"
      ],
      [
        "æĿ",
        "¥"
      ],
      [
        "ç",
        "ľ"
      ],
      [
        "é",
        "«"
      ],
      [
        "ä¸",
        "İ"
      ],
      [
        "åĪ",
        "Ĩ"
      ],
      [
        "æĢ",
        "§"
      ],
      [
        "è¡",
        "Į"
      ],
      [
        "æ",
        "¯"
      ],
      [
        "æ",
        "Ń"
      ],
      [
        "è¿",
        "Ļ"
      ],
      [
        "é«",
        "ĺ"
      ],
      [
        "ä¼",
        "ģ"
      ],
      [
        "ä½",
        "ľ"
      ],
      [
        "æ",
        "Į"
      ],
      [
        "åŃ",
        "Ĳ"
      ],
      [
        "ä¼ģ",
        "ä¸ļ"
      ],
      [
        "è",
        "ī"
      ],
      [
        "æĬ",
        "Ģ"
      ],
      [
        "ç§",
        "ĳ"
      ],
      [
        "âĢ",
        "ľ"
      ],
      [
        "âĢ",
        "Ŀ"
      ],
      [
        "å",
        "ģ"
      ],
      [
        "ç»",
        "ı"
      ],
      [
        "é",
        "¡"
      ],
      [
        "è¿",
        "ĩ"
      ],
      [
        "ç¨",
        "İ"
      ],
      [
        "ä»",
        "¬"
      ],
      [
        "æķ",
        "°"
      ],
      [
        "é",
        "¦"
      ],
      [
        "äº",
        "§"
      ],
      [
        "åĵ",
        "ģ"
      ],
      [
        "æ",
        "ģ"
      ],
      [
        "æĹ",
        "¶"
      ],
      [
        "å¯",
        "¹"
      ],
      [
        "æ",
        "±"
      ],
      [
        "äº",
        "İ"
      ],
      [
        "æĸ",
        "¹"
      ],
      [
        "æķ",
        "Ļ"
      ],
      [
        "å¥",
        "½"
      ],
      [
        "å",
        "»"
      ],
      [
        "ç",
        "®"
      ],
      [
        "è",
        "Ĥ"
      ],
      [
        "ä»",
        "ĸ"
      ],
      [
        "å»",
        "º"
      ],
      [
        "åĬ",
        "Ľ"
      ],
      [
        "éĿ",
        "¢"
      ],
      [
        "è",
        "¾"
      ],
      [
        "è",
        "Į"
      ],
      [
        "é",
        "ģ"
      ],
      [
        "åº",
        "Ķ"
      ],
      [
        "å¸",
        "Ī"
      ],
      [
        "åıĳ",
        "å±ķ"
      ],
      [
        "èĮ",
        "ĥ"
      ],
      [
        "å",
        "ĳ"
      ],
      [
        "æ",
        "Ħ"
      ],
      [
        "æ",
        "ŀ"
      ],
      [
        "ç",
        "Ĥ"
      ],
      [
        "ä¹",
        "Ł"
      ],
      [
        "ä¸Ń",
        "åĽ½"
      ],
      [
        "æľ",
        "º"
      ],
      [
        "å",
        "Ģ"
      ],
      [
        "æĬĢ",
        "æľ¯"
      ],
      [
        "æ",
        "¬"
      ],
      [
        "ä¸",
        "ĵ"
      ],
      [
        "åħ",
        "¨"
      ],
      [
        "åĪ",
        "¶"
      ],
      [
        "çī",
        "¹"
      ],
      [
        "ä¿",
        "¡"
      ],
      [
        "å",
        "¦"
      ],
      [
        "ç¨",
        "ĭ"
      ],
      [
        "ç",
        "ĥ"
      ],
      [
        "åĲ",
        "Ī"
      ],
      [
        "ç",
        "¤"
      ],
      [
        "é",
        "ĥ"
      ],
      [
        "è®",
        "¡"
      ],
      [
        "æ",
        "ĭ"
      ],
      [
        "æ",
        "Ľ"
      ],
      [
        "ç",
        "½"
      ],
      [
        "è",
        "½"
      ],
      [
        "æĸ",
        "ĩ"
      ],
      [
        "å¼",
        "Ģ"
      ],
      [
        "ç",
        "¬"
      ],
      [
        "é",
        "ķ"
      ],
      [
        "è",
        "ģ"
      ],
      [
        "ç",
        "¥"
      ],
      [
        "æľ",
        "¬"
      ],
      [
        "åĽ",
        "ł"
      ],
      [
        "åį",
        "ļ"
      ],
      [
        "é¦",
        "Ĩ"
      ],
      [
        "æł",
        "¡"
      ],
      [
        "åĩ",
        "º"
      ],
      [
        "éĥ",
        "¨"
      ],
      [
        "é¡",
        "¹"
      ],
      [
        "å",
        "ī"
      ],
      [
        "ä¸",
        "»"
      ],
      [
        "èĤ",
        "²"
      ],
      [
        "ä",
        "¾"
      ],
      [
        "å",
        "¢"
      ],
      [
        "ç",
        "©"
      ],
      [
        "åħ",
        "¬"
      ],
      [
        "åĬ",
        "¨"
      ],
      [
        "æĪ",
        "¿"
      ],
      [
        "éķ",
        "¿"
      ],
      [
        "ç",
        "«"
      ],
      [
        "å®",
        "ļ"
      ],
      [
        "åŃ¦",
        "çĶŁ"
      ],
      [
        "æ",
        "ı"
      ],
      [
        "è",
        "¶"
      ],
      [
        "åľ",
        "°"
      ],
      [
        "åĲ",
        "Į"
      ],
      [
        "å¾",
        "Ĺ"
      ],
      [
        "ç»",
        "Ł"
      ],
      [
        "å¤§",
        "åŃ¦"
      ],
      [
        "å°",
        "±"
      ],
      [
        "æĪĳ",
        "ä»¬"
      ],
      [
        "¥",
        "åº"
      ],
      [
        "æ",
        "´"
      ],
      [
        "æ",
        "¸"
      ],
      [
        "æ",
        "į"
      ],
      [
        "åħ",
        "¶"
      ],
      [
        "å",
        "ķ"
      ],
      [
        "æ",
        "Ļ"
      ],
      [
        "åĬ",
        "ł"
      ],
      [
        "å¸",
        "Ĥ"
      ],
      [
        "ä¸",
        "ľ"
      ],
      [
        "åľ",
        "º"
      ],
      [
        "å¸Ī",
        "èĮĥ"
      ],
      [
        "æĹ",
        "ł"
      ],
      [
        "æģ",
        "¯"
      ],
      [
        "ç",
        "ķ"
      ],
      [
        "æĽ",
        "´"
      ],
      [
        "æ",
        "¶"
      ],
      [
        "ç",
        "¾"
      ],
      [
        "èµ",
        "Ħ"
      ],
      [
        "èĢ",
        "Į"
      ],
      [
        "çĶ",
        "µ"
      ],
      [
        "éĢ",
        "ł"
      ],
      [
        "ç",
        "¡"
      ],
      [
        "ç",
        "Ł"
      ],
      [
        "åħ",
        "·"
      ],
      [
        "æī",
        "Ģ"
      ],
      [
        "æ°",
        "´"
      ],
      [
        "çī©",
        "é¦Ĩ"
      ],
      [
        "åįļ",
        "çī©é¦Ĩ"
      ],
      [
        "æı",
        "Ĳ"
      ],
      [
        "ç",
        "±"
      ],
      [
        "è",
        "Ļ"
      ],
      [
        "ä»",
        "İ"
      ],
      [
        "åı",
        "Ĭ"
      ],
      [
        "åĬ",
        "¡"
      ],
      [
        "æ°",
        "Ķ"
      ],
      [
        "è´",
        "¨"
      ],
      [
        "æ³",
        "ķ"
      ],
      [
        "ç®",
        "¡"
      ],
      [
        "ç",
        "Ŀ"
      ],
      [
        "æĸ",
        "°"
      ],
      [
        "æľ",
        "Ł"
      ],
      [
        "åħ",
        "³"
      ],
      [
        "çĤ",
        "¹"
      ],
      [
        "ä¿¡",
        "æģ¯"
      ],
      [
        "ç¬",
        "¬"
      ],
      [
        "ç",
        "³"
      ],
      [
        "ä½",
        "¿"
      ],
      [
        "åĨ",
        "ħ"
      ],
      [
        "çĽ",
        "¸"
      ],
      [
        "ä¸ĵ",
        "ä¸ļ"
      ],
      [
        "åķ",
        "Ĩ"
      ],
      [
        "é",
        "ļ"
      ],
      [
        "ä¸",
        "ĭ"
      ],
      [
        "åĲ",
        "İ"
      ],
      [
        "åº",
        "¦"
      ],
      [
        "ç§",
        "į"
      ],
      [
        "éĩ",
        "į"
      ],
      [
        "æ¯",
        "Ķ"
      ],
      [
        "æĦ",
        "ı"
      ],
      [
        "å¦",
        "Ĥ"
      ],
      [
        "åŁ",
        "º"
      ],
      [
        "çĥ",
        "Ń"
      ],
      [
        "ç³",
        "»"
      ],
      [
        "äº",
        "Ľ"
      ],
      [
        "è¿",
        "Ĳ"
      ],
      [
        "è¿",
        "ĺ"
      ],
      [
        "ä¹",
        "ĭ"
      ],
      [
        "å¹",
        "³"
      ],
      [
        "æī",
        "į"
      ],
      [
        "åĽ½",
        "å®¶"
      ],
      [
        "èĢ",
        "ħ"
      ],
      [
        "æĥ",
        "ħ"
      ],
      [
        "å»º",
        "è®¾"
      ],
      [
        "è¡",
        "¨"
      ],
      [
        "å½",
        "ĵ"
      ],
      [
        "åģ",
        "¥åº"
      ],
      [
        "çĿ",
        "Ģ"
      ],
      [
        "åģ¥åº",
        "·"
      ],
      [
        "å",
        "Ŀ"
      ],
      [
        "åħ",
        "¥"
      ],
      [
        "ä»",
        "£"
      ],
      [
        "å¾",
        "Ī"
      ],
      [
        "é¢",
        "Ŀ"
      ],
      [
        "ç¾",
        "İ"
      ],
      [
        "ç®¡",
        "çĲĨ"
      ],
      [
        "è",
        "°"
      ],
      [
        "é",
        "ĺ"
      ],
      [
        "é",
        "ĥ½"
      ],
      [
        "äº",
        "ĭ"
      ],
      [
        "ä½",
        "į"
      ],
      [
        "æµ",
        "ģ"
      ],
      [
        "ç±",
        "»"
      ],
      [
        "è",
        "Ī"
      ],
      [
        "é",
        "Ķ"
      ],
      [
        "æĺ",
        "İ"
      ],
      [
        "åŃ¦",
        "ç§ĳ"
      ],
      [
        "èī",
        "²"
      ],
      [
        "æķĻ",
        "èĤ²"
      ],
      [
        "æ´",
        "»"
      ],
      [
        "ç",
        "Ħ"
      ],
      [
        "é",
        "ľ"
      ],
      [
        "ä¸",
        "ī"
      ],
      [
        "å¤",
        "ĩ"
      ],
      [
        "éĹ",
        "¨"
      ],
      [
        "æĥ",
        "³"
      ],
      [
        "çľ",
        "ģ"
      ],
      [
        "éģ",
        "ĵ"
      ],
      [
        "é",
        "ª"
      ],
      [
        "å¤",
        "Ħ"
      ],
      [
        "å°",
        "Ĩ"
      ],
      [
        "éĹ",
        "´"
      ],
      [
        "æ²",
        "¡"
      ],
      [
        "éľ",
        "Ģ"
      ],
      [
        "æ",
        "Ł"
      ],
      [
        "ç",
        "´"
      ],
      [
        "æł",
        "ĩ"
      ],
      [
        "æ±",
        "Ĥ"
      ],
      [
        "ç¥",
        "¨"
      ],
      [
        "å¸ĪèĮĥ",
        "å¤§åŃ¦"
      ],
      [
        "å¤",
        "©"
      ],
      [
        "æ¬",
        "¡"
      ],
      [
        "ç©",
        "º"
      ],
      [
        "åħ",
        "±"
      ],
      [
        "æ°",
        "ĳ"
      ],
      [
        "æİ",
        "§"
      ],
      [
        "å¿ĥ",
        "çĲĨ"
      ],
      [
        "æ²¡",
        "æľī"
      ],
      [
        "è",
        "£"
      ],
      [
        "éĩ",
        "ı"
      ],
      [
        "çĽ",
        "®"
      ],
      [
        "æľ",
        "Ģ"
      ],
      [
        "ä½",
        "Ĩ"
      ],
      [
        "å°",
        "ı"
      ],
      [
        "æł",
        "·"
      ],
      [
        "å·¥",
        "ä½ľ"
      ],
      [
        "åİ",
        "»"
      ],
      [
        "ç¤",
        "¾"
      ],
      [
        "0",
        "0"
      ],
      [
        "å·",
        "±"
      ],
      [
        "å¼",
        "º"
      ],
      [
        "èĩª",
        "å·±"
      ],
      [
        "ç¨İ",
        "é¢Ŀ"
      ],
      [
        "ç½",
        "ĳ"
      ],
      [
        "ç",
        "¦"
      ],
      [
        "ç",
        "Ī"
      ],
      [
        "è",
        "Ĳ"
      ],
      [
        "åŃ",
        "©"
      ],
      [
        "æĢ",
        "ģ"
      ],
      [
        "è§",
        "£"
      ],
      [
        "è§",
        "Ħ"
      ],
      [
        "çº",
        "§"
      ],
      [
        "æŀ",
        "ľ"
      ],
      [
        "çŁ",
        "¥"
      ],
      [
        "ç¤¾",
        "ä¼ļ"
      ],
      [
        "æ",
        "º"
      ],
      [
        "è",
        "Ĭ"
      ],
      [
        "åı",
        "ª"
      ],
      [
        "åĪ",
        "©"
      ],
      [
        "åĪ",
        "«"
      ],
      [
        "ä¸Ģ",
        "ä¸ª"
      ],
      [
        "èµ",
        "Ľ"
      ],
      [
        "åı¯",
        "ä»¥"
      ],
      [
        "å¢",
        "ŀ"
      ],
      [
        "çĦ",
        "¶"
      ],
      [
        "å",
        "ŀ"
      ],
      [
        "åħ",
        "»"
      ],
      [
        "æķ",
        "Ī"
      ],
      [
        "çĲ",
        "ĥ"
      ],
      [
        "è§",
        "Ĥ"
      ],
      [
        "æİ",
        "Ĵ"
      ],
      [
        "ç«",
        "ĭ"
      ],
      [
        "æį",
        "®"
      ],
      [
        "ç",
        "ł"
      ],
      [
        "è",
        "·"
      ],
      [
        "ãĢ",
        "Ĭ"
      ],
      [
        "ãĢ",
        "ĭ"
      ],
      [
        "åĲ",
        "į"
      ],
      [
        "è¯",
        "´"
      ],
      [
        "å¯",
        "¼"
      ],
      [
        "åŁ",
        "¹"
      ],
      [
        "æŃ",
        "£"
      ],
      [
        "åĢ",
        "¼"
      ],
      [
        "è½",
        "¬"
      ],
      [
        "åī",
        "į"
      ],
      [
        "ä¿¡æģ¯",
        "åĮĸ"
      ],
      [
        "éª",
        "Į"
      ],
      [
        "æľ",
        "į"
      ],
      [
        "ç»",
        "ĵ"
      ],
      [
        "å·",
        "²"
      ],
      [
        "å¹",
        "¶"
      ],
      [
        "æĬ",
        "ķ"
      ],
      [
        "è¯",
        "Ĩ"
      ],
      [
        "è§",
        "ģ"
      ],
      [
        "ç¤",
        "º"
      ],
      [
        "æĻ",
        "º"
      ],
      [
        "ç",
        "²"
      ],
      [
        "ç",
        "¼"
      ],
      [
        "é",
        "Ĵ"
      ],
      [
        "ä»",
        "·"
      ],
      [
        "æĪ",
        "ĸ"
      ],
      [
        "åĮ",
        "ħ"
      ],
      [
        "çľ",
        "ĭ"
      ],
      [
        "æŃ",
        "¤"
      ],
      [
        "åŀ",
        "ĭ"
      ],
      [
        "å",
        "£"
      ],
      [
        "è",
        "ĭ"
      ],
      [
        "åĲ",
        "ĳ"
      ],
      [
        "åį",
        "°"
      ],
      [
        "åį",
        "Ĺ"
      ],
      [
        "æĬ",
        "µ"
      ],
      [
        "æĹ",
        "¥"
      ],
      [
        "éĢ",
        "ļ"
      ],
      [
        "å·¥",
        "ç¨ĭ"
      ],
      [
        "æ¶",
        "Ī"
      ],
      [
        "åħ·",
        "æľī"
      ],
      [
        "2",
        "0"
      ],
      [
        "ä½",
        "İ"
      ],
      [
        "æī",
        "ĵ"
      ],
      [
        "åİ",
        "Ĥ"
      ],
      [
        "è¿Ľ",
        "è¡Į"
      ],
      [
        "æĮ",
        "ĩ"
      ],
      [
        "æ",
        "¡"
      ],
      [
        "æ",
        "¢"
      ],
      [
        "æ",
        "¨"
      ],
      [
        "è",
        "ĥ"
      ],
      [
        "ħ",
        "§"
      ],
      [
        "äº",
        "Į"
      ],
      [
        "å¤",
        "ĸ"
      ],
      [
        "å®",
        "¤"
      ],
      [
        "æķ",
        "´"
      ],
      [
        "æĶ",
        "¿"
      ],
      [
        "è®¾",
        "å¤ĩ"
      ],
      [
        "èģ",
        "Ķ"
      ],
      [
        "èĬ",
        "Ĥ"
      ],
      [
        "è",
        "¥"
      ],
      [
        "è",
        "º"
      ],
      [
        "åı",
        "Ĺ"
      ],
      [
        "åĽ",
        "Ľ"
      ],
      [
        "è®",
        "©"
      ],
      [
        "ä¹",
        "ł"
      ],
      [
        "é¢",
        "ĺ"
      ],
      [
        "ç¦",
        "»"
      ],
      [
        "èĲ",
        "¥"
      ],
      [
        "åŁ¹",
        "åħ»"
      ],
      [
        "é",
        "Ľ"
      ],
      [
        "äºº",
        "æīį"
      ],
      [
        "ç§",
        "Ł"
      ],
      [
        "æĶ",
        "¾"
      ],
      [
        "å®ŀ",
        "éªĮ"
      ],
      [
        "æĸ¹",
        "éĿ¢"
      ],
      [
        "è¥",
        "¿"
      ],
      [
        "å",
        "ĸ"
      ],
      [
        "ä¸",
        "¤"
      ],
      [
        "å¤",
        "±"
      ],
      [
        "ä»",
        "»"
      ],
      [
        "å®",
        "ī"
      ],
      [
        "ä¼",
        "Ĺ"
      ],
      [
        "åŃ¦",
        "æł¡"
      ],
      [
        "æĸ",
        "Ļ"
      ],
      [
        "åį",
        "ģ"
      ],
      [
        "åº",
        "Ł"
      ],
      [
        "åĮ",
        "Ĺ"
      ],
      [
        "æĢ",
        "Ŀ"
      ],
      [
        "éĩ",
        "Į"
      ],
      [
        "åİ",
        "Ł"
      ],
      [
        "æµ",
        "İ"
      ],
      [
        "æĮ",
        "ģ"
      ],
      [
        "éľĢ",
        "è¦ģ"
      ],
      [
        "è£",
        "ħ"
      ],
      [
        "æ",
        "¹"
      ],
      [
        "è",
        "Ĺ"
      ],
      [
        "åŃ",
        "Ĺ"
      ],
      [
        "åĪ",
        "Ľ"
      ],
      [
        "åĲ",
        "Ħ"
      ],
      [
        "è®",
        "¤"
      ],
      [
        "å¸",
        "¸"
      ],
      [
        "çĶŁ",
        "äº§"
      ],
      [
        "åĨ",
        "³"
      ],
      [
        "è¿Ľ",
        "é¡¹"
      ],
      [
        "ç»ı",
        "æµİ"
      ],
      [
        "åĳ",
        "ĺ"
      ],
      [
        "èĻ",
        "Ł"
      ],
      [
        "åŃ©",
        "åŃĲ"
      ],
      [
        "çł",
        "Ķ"
      ],
      [
        "ç²",
        "¾"
      ],
      [
        "èº",
        "«"
      ],
      [
        "ç",
        "Ļ"
      ],
      [
        "äº",
        "Ķ"
      ],
      [
        "åħ",
        "ĭ"
      ],
      [
        "åı",
        "¸"
      ],
      [
        "åı",
        "ĺ"
      ],
      [
        "åĪ",
        "Ĵ"
      ],
      [
        "å¸",
        "¦"
      ],
      [
        "æł",
        "¼"
      ],
      [
        "çİ",
        "¯"
      ],
      [
        "çŃ",
        "ĸ"
      ],
      [
        "çº",
        "¸"
      ],
      [
        "éĹ",
        "®"
      ],
      [
        "éĻ",
        "¢"
      ],
      [
        "åģ",
        "ļ"
      ],
      [
        "äº§",
        "åĵģ"
      ],
      [
        "ç®",
        "Ĺ"
      ],
      [
        "åĪ¶",
        "éĢł"
      ],
      [
        "éĥ¨",
        "åĪĨ"
      ],
      [
        "æĪ¿",
        "ä¸ľ"
      ],
      [
        "ç³»",
        "ç»Ł"
      ],
      [
        "æ",
        "£"
      ],
      [
        "æ",
        "·"
      ],
      [
        "é",
        "Ĥ"
      ],
      [
        "äº",
        "¬"
      ],
      [
        "åħ",
        "ļ"
      ],
      [
        "å¤",
        "´"
      ],
      [
        "è®",
        "°"
      ],
      [
        "æĸ",
        "¯"
      ],
      [
        "ä¹",
        "¦"
      ],
      [
        "åĮ",
        "º"
      ],
      [
        "è¯",
        "Ħ"
      ],
      [
        "éĢ",
        "Ĥ"
      ],
      [
        "å¿",
        "«"
      ],
      [
        "å¿",
        "µ"
      ],
      [
        "å¼",
        "ı"
      ],
      [
        "éĩ",
        "ĳ"
      ],
      [
        "è¦ģ",
        "æ±Ĥ"
      ],
      [
        "èµ",
        "·"
      ],
      [
        "æĶ",
        "¶"
      ],
      [
        "åı¯",
        "èĥ½"
      ],
      [
        "å®ŀ",
        "çİ°"
      ],
      [
        "æķ°",
        "æį®"
      ],
      [
        "æ¬",
        "¾"
      ],
      [
        "ç¥",
        "ŀ"
      ],
      [
        "åºŁ",
        "æ°Ķ"
      ],
      [
        "ç",
        "ĸ"
      ],
      [
        "è",
        "¢"
      ],
      [
        "ä»",
        "¶"
      ],
      [
        "åĬ",
        "©"
      ],
      [
        "åį",
        "³"
      ],
      [
        "åį",
        "ĩ"
      ],
      [
        "éĢ",
        "ģ"
      ],
      [
        "æİ",
        "¨"
      ],
      [
        "èī",
        "¯"
      ],
      [
        "èī",
        "º"
      ],
      [
        "èģ",
        "Į"
      ],
      [
        "å¸Ĥ",
        "åľº"
      ],
      [
        "ç¡",
        "Ģ"
      ],
      [
        "åŁº",
        "ç¡Ģ"
      ],
      [
        "å£",
        "«"
      ],
      [
        "èĹ",
        "ı"
      ],
      [
        "è",
        "¨"
      ],
      [
        "é",
        "£"
      ],
      [
        "é",
        "»"
      ],
      [
        "è¿",
        "ĳ"
      ],
      [
        "ç»",
        "Ļ"
      ],
      [
        "ä¹",
        "Ī"
      ],
      [
        "æĬ",
        "Ĭ"
      ],
      [
        "å±",
        "ŀ"
      ],
      [
        "çº",
        "³"
      ],
      [
        "å½",
        "±"
      ],
      [
        "ä¿",
        "Ŀ"
      ],
      [
        "éĻ",
        "¤"
      ],
      [
        "ç¨İ",
        "æ¬¾"
      ],
      [
        "è¾",
        "¾"
      ],
      [
        "åĽł",
        "ä¸º"
      ],
      [
        "å¢",
        "ĥ"
      ],
      [
        "çķ",
        "Ļ"
      ],
      [
        "éĶ",
        "Ģ"
      ],
      [
        "å¤Ħ",
        "çĲĨ"
      ],
      [
        "æº",
        "Ĳ"
      ],
      [
        "å®ŀéªĮ",
        "å®¤"
      ],
      [
        "1",
        "1"
      ],
      [
        "å",
        "§"
      ],
      [
        "è",
        "į"
      ],
      [
        "ä¸",
        "ĸ"
      ],
      [
        "å®",
        "¹"
      ],
      [
        "ç»",
        "ľ"
      ],
      [
        "è®",
        "º"
      ],
      [
        "å½",
        "¢"
      ],
      [
        "çľ",
        "Ł"
      ],
      [
        "æķĻ",
        "åŃ¦"
      ],
      [
        "è¾",
        "ĥ"
      ],
      [
        "åī",
        "Ĥ"
      ],
      [
        "èĪ",
        "¬"
      ],
      [
        "èĩªå·±",
        "çļĦ"
      ],
      [
        "ç½ĳ",
        "ç»ľ"
      ],
      [
        "æľį",
        "åĬ¡"
      ],
      [
        "éĽ",
        "Ĩ"
      ],
      [
        "æ¹",
        "ĸ"
      ],
      [
        "è¢",
        "«"
      ],
      [
        "è¨",
        "Ģ"
      ],
      [
        "é",
        "ħ"
      ],
      [
        "ä¸",
        "ĩ"
      ],
      [
        "äº",
        "¤"
      ],
      [
        "åħ",
        "ĥ"
      ],
      [
        "æĺ",
        "ĵ"
      ],
      [
        "ä¼",
        "ł"
      ],
      [
        "å¸",
        "ĥ"
      ],
      [
        "çĶŁ",
        "æ´»"
      ],
      [
        "è¯",
        "¥"
      ],
      [
        "éĩ",
        "ĩ"
      ],
      [
        "ä»¥",
        "åıĬ"
      ],
      [
        "éĿ",
        "ŀ"
      ],
      [
        "åĵ",
        "į"
      ],
      [
        "é¢",
        "Ĩ"
      ],
      [
        "æ²",
        "»"
      ],
      [
        "æ¯",
        "ı"
      ],
      [
        "ç©",
        "¶"
      ],
      [
        "ç»Ł",
        "è®¡"
      ],
      [
        "æ¸",
        "¸"
      ],
      [
        "éĹ®",
        "é¢ĺ"
      ],
      [
        "æ£",
        "Ģ"
      ],
      [
        "é",
        "©"
      ],
      [
        "é",
        "ĵ"
      ],
      [
        "æľ",
        "ª"
      ],
      [
        "ä½",
        "ł"
      ],
      [
        "æĺ",
        "¥"
      ],
      [
        "åĽ",
        "ŀ"
      ],
      [
        "ç»",
        "´"
      ],
      [
        "ä¼",
        "ĺ"
      ],
      [
        "ä¹",
        "ī"
      ],
      [
        "ä¸Ń",
        "çļĦ"
      ],
      [
        "çĶŁ",
        "æĢģ"
      ],
      [
        "æĢ",
        "»"
      ],
      [
        "å¾",
        "·"
      ],
      [
        "å±",
        "Ĥ"
      ],
      [
        "æĿ",
        "Ĳ"
      ],
      [
        "èĥ½",
        "åĬĽ"
      ],
      [
        "éĿ",
        "Ĵ"
      ],
      [
        "æ³",
        "¢"
      ],
      [
        "è®¾",
        "è®¡"
      ],
      [
        "è¿Ļ",
        "æł·"
      ],
      [
        "æ±",
        "Ł"
      ],
      [
        "è®¡",
        "ç®Ĺ"
      ],
      [
        "ä¸»",
        "è¦ģ"
      ],
      [
        "å",
        "Ķ"
      ],
      [
        "æ",
        "®"
      ],
      [
        "ç",
        "Ĭ"
      ],
      [
        "åħ",
        "Ī"
      ],
      [
        "åı",
        "į"
      ],
      [
        "ä½",
        "ķ"
      ],
      [
        "ç»",
        "Ħ"
      ],
      [
        "æĸ",
        "Ń"
      ],
      [
        "ä¸į",
        "åĲĮ"
      ],
      [
        "å¹",
        "¿"
      ],
      [
        "è§",
        "ī"
      ],
      [
        "èĩ",
        "³"
      ],
      [
        "æİ",
        "¥"
      ],
      [
        "è¿Ļ",
        "ä¸ª"
      ],
      [
        "âĢĿ",
        ","
      ],
      [
        "è¿ĩ",
        "ç¨ĭ"
      ],
      [
        "ä»ĸ",
        "ä»¬"
      ],
      [
        "åºĶ",
        "çĶ¨"
      ],
      [
        "ä¾",
        "Ľ"
      ],
      [
        "åħ¬",
        "åı¸"
      ],
      [
        "è¶",
        "Ĭ"
      ],
      [
        "ç´",
        "ł"
      ],
      [
        "èĹı",
        "åĵģ"
      ],
      [
        "è",
        "Ħ"
      ],
      [
        "æĺ",
        "¾"
      ],
      [
        "ç»",
        "Ń"
      ],
      [
        "åŃ¦",
        "ä¹ł"
      ],
      [
        "åį",
        "ķ"
      ],
      [
        "æĬ",
        "¤"
      ],
      [
        "æī",
        "ĭ"
      ],
      [
        "å°",
        "ĳ"
      ],
      [
        "çİ",
        "ĩ"
      ],
      [
        "åĨ",
        "µ"
      ],
      [
        "åĨ",
        "į"
      ],
      [
        "é¢",
        "Ħ"
      ],
      [
        "æ³",
        "¨"
      ],
      [
        "æķ°",
        "åŃĹ"
      ],
      [
        "å¥½",
        "çļĦ"
      ],
      [
        "åĳ",
        "Ĭ"
      ],
      [
        "åħ¨",
        "åĽ½"
      ],
      [
        "æį",
        "Ł"
      ],
      [
        "æīĢ",
        "ä»¥"
      ],
      [
        "çłĶ",
        "ç©¶"
      ],
      [
        "ç²¾",
        "ç¥ŀ"
      ],
      [
        "èģĮ",
        "ä¸ļ"
      ],
      [
        "Â",
        "·"
      ],
      [
        "å",
        "Ħ"
      ],
      [
        "ç",
        "ģ"
      ],
      [
        "å¤",
        "Ł"
      ],
      [
        "ä¸Ģ",
        "äºĽ"
      ],
      [
        "åį",
        "İ"
      ],
      [
        "å¿",
        "ħ"
      ],
      [
        "å¼",
        "ķ"
      ],
      [
        "èĢ",
        "ĥ"
      ],
      [
        "æķ°",
        "æİ§"
      ],
      [
        "è¾",
        "ĵ"
      ],
      [
        "åĢ",
        "ĭ"
      ],
      [
        "æĸĩ",
        "åĮĸ"
      ],
      [
        "é¡¹",
        "çĽ®"
      ],
      [
        "æ¸",
        "©"
      ],
      [
        "å¦Ĥ",
        "æŀľ"
      ],
      [
        "æ¡",
        "Ī"
      ],
      [
        "çİ¯",
        "å¢ĥ"
      ],
      [
        "èīº",
        "æľ¯"
      ],
      [
        "å½±",
        "åĵį"
      ],
      [
        "é©",
        "¬"
      ],
      [
        "æįŁ",
        "å¤±"
      ],
      [
        "åĦ",
        "¿"
      ],
      [
        "å",
        "ĥ"
      ],
      [
        "æ",
        "Ĥ"
      ],
      [
        "æ",
        "ħ§"
      ],
      [
        "æľ",
        "Ī"
      ],
      [
        "å®",
        "¢"
      ],
      [
        "å®",
        "ĥ"
      ],
      [
        "æĪ",
        "ĺ"
      ],
      [
        "éĢ",
        "ī"
      ],
      [
        "ç§",
        "¯"
      ],
      [
        "èµ",
        "°"
      ],
      [
        "èĥ½",
        "å¤Ł"
      ],
      [
        "èĢ",
        "ģ"
      ],
      [
        "åŁ",
        "İ"
      ],
      [
        "åŁ",
        "Ł"
      ],
      [
        "è¡Į",
        "ä¸ļ"
      ],
      [
        "äº§",
        "ä¸ļ"
      ],
      [
        "åıĳå±ķ",
        "çļĦ"
      ],
      [
        "æĦ",
        "Ł"
      ],
      [
        "ç¬",
        "¦"
      ],
      [
        "çĶµ",
        "åŃĲ"
      ],
      [
        "æ°´",
        "å¹³"
      ],
      [
        "éļ",
        "¾"
      ],
      [
        "éļ",
        "ı"
      ],
      [
        "æŁ",
        "¥"
      ],
      [
        "ä½Ĩ",
        "æĺ¯"
      ],
      [
        "åĪ©",
        "çĶ¨"
      ],
      [
        "æĻº",
        "æħ§"
      ],
      [
        "éĢļ",
        "è¿ĩ"
      ],
      [
        "æĢĿ",
        "æĥ³"
      ],
      [
        "è¿Ľé¡¹",
        "çķĻ"
      ],
      [
        "æ·",
        "±"
      ],
      [
        "æĺ¥",
        "èĬĤ"
      ],
      [
        "åĶ",
        "®"
      ],
      [
        "çĬ",
        "¶"
      ],
      [
        "è¿Ľé¡¹çķĻ",
        "æĬµ"
      ],
      [
        "æ",
        "ĵ"
      ],
      [
        "è",
        "ª"
      ],
      [
        "è",
        "ĵ"
      ],
      [
        "é",
        "¥"
      ],
      [
        "äº",
        "²"
      ],
      [
        "åı",
        "°"
      ],
      [
        "åĽ",
        "¢"
      ],
      [
        "åĽ",
        "´"
      ],
      [
        "åĬ",
        "¿"
      ],
      [
        "ä¸į",
        "è¦ģ"
      ],
      [
        "æĬ",
        "¥"
      ],
      [
        "å¥",
        "³"
      ],
      [
        "åĩ",
        "ł"
      ],
      [
        "çī©",
        "æµģ"
      ],
      [
        "éĻ",
        "ħ"
      ],
      [
        "æĶ",
        "¹"
      ],
      [
        "çİ°",
        "åľ¨"
      ],
      [
        "æ¯",
        "ķ"
      ],
      [
        "æŃ",
        "¥"
      ],
      [
        "å¯¹",
        "äºİ"
      ],
      [
        "çī¹",
        "çĤ¹"
      ],
      [
        "çī¹",
        "èī²"
      ],
      [
        "ä¾",
        "Ŀ"
      ],
      [
        "æĪ¿",
        "ç§Ł"
      ],
      [
        "çķ",
        "Į"
      ],
      [
        "èµĦ",
        "æºĲ"
      ],
      [
        "åĿ",
        "ĩ"
      ],
      [
        "çĪ",
        "±"
      ],
      [
        "çŁ¥",
        "è¯Ĩ"
      ],
      [
        "æ¨",
        "¡"
      ],
      [
        "ç¨İæ¬¾",
        "æįŁå¤±"
      ],
      [
        "èį",
        "¯"
      ],
      [
        "ĺ",
        "åľ¨"
      ],
      [
        "ä¸",
        "½"
      ],
      [
        "äº",
        "ī"
      ],
      [
        "åı",
        "¥"
      ],
      [
        "åı",
        "Ĥ"
      ],
      [
        "åĽ",
        "Ń"
      ],
      [
        "ä¸į",
        "ä¼ļ"
      ],
      [
        "æī",
        "¿"
      ],
      [
        "æ°",
        "§"
      ],
      [
        "å¥",
        "¥"
      ],
      [
        "è´",
        "§"
      ],
      [
        "åİ",
        "Ĩ"
      ],
      [
        "æĪĲ",
        "ä¸º"
      ],
      [
        "èĩª",
        "çĦ¶"
      ],
      [
        "ä¼ģä¸ļ",
        "çļĦ"
      ],
      [
        "é¦",
        "ĸ"
      ],
      [
        "åħ¨",
        "éĿ¢"
      ],
      [
        "è½",
        "®"
      ],
      [
        "åĽł",
        "æŃ¤"
      ],
      [
        "è¶",
        "³"
      ],
      [
        "å°±",
        "æĺ¯"
      ],
      [
        "åĬł",
        "å·¥"
      ],
      [
        "ç¡",
        "®"
      ],
      [
        "æıĲ",
        "é«ĺ"
      ],
      [
        "ä½¿",
        "çĶ¨"
      ],
      [
        "æ¯Ķ",
        "èµĽ"
      ],
      [
        "åĿ",
        "ļ"
      ],
      [
        "çĪ",
        "¶"
      ],
      [
        "å·²",
        "ç»ı"
      ],
      [
        "èĭ",
        "¦"
      ],
      [
        "æ¢",
        "¦"
      ],
      [
        "éĤ",
        "£"
      ],
      [
        "é£",
        "İ"
      ],
      [
        "åĥ",
        "ı"
      ],
      [
        "è¿Ľé¡¹çķĻæĬµ",
        "ç¨İé¢Ŀ"
      ],
      [
        "æ",
        "»"
      ],
      [
        "æ",
        "¿"
      ],
      [
        "ç",
        "ª"
      ],
      [
        "è",
        "©"
      ],
      [
        "ä»",
        "Ģ"
      ],
      [
        "å®",
        "Į"
      ],
      [
        "ä¸Ģ",
        "å®ļ"
      ],
      [
        "ä¹",
        "Ĳ"
      ],
      [
        "åº",
        "Ĺ"
      ],
      [
        "å·",
        "®"
      ],
      [
        "çĶŁ",
        "æĦı"
      ],
      [
        "èĩ",
        "Ń"
      ],
      [
        "è´",
        "¹"
      ],
      [
        "è´",
        "Ń"
      ],
      [
        "çİ°",
        "ä»£"
      ],
      [
        "è¿Ļ",
        "ç§į"
      ],
      [
        "ç»ı",
        "èĲ¥"
      ],
      [
        "äº§",
        "çĶŁ"
      ],
      [
        "æģ",
        "¶"
      ],
      [
        "åºĶ",
        "è¯¥"
      ],
      [
        "åĳ",
        "½"
      ],
      [
        "æľº",
        "æ¢"
      ],
      [
        "çī¹",
        "åĪ«"
      ],
      [
        "å¦",
        "Ī"
      ],
      [
        "ç½",
        "Ĺ"
      ],
      [
        "æĸĩ",
        "æĺİ"
      ],
      [
        "å¼Ģ",
        "åıĳ"
      ],
      [
        "ä¸»",
        "ä¹ī"
      ],
      [
        "è´¨",
        "éĩı"
      ],
      [
        "ç¬¬",
        "ä¸Ģ"
      ],
      [
        "ç¾İ",
        "ä¸½"
      ],
      [
        "éĺ",
        "²"
      ],
      [
        "éĺ",
        "Ł"
      ],
      [
        "å¢ŀ",
        "åĢ¼"
      ],
      [
        "ä¸¤",
        "ä¸ª"
      ],
      [
        "å½¢",
        "æĪĲ"
      ],
      [
        "è®¡ç®Ĺ",
        "æľº"
      ],
      [
        "æĵ",
        "į"
      ],
      [
        "æľºæ¢",
        "°"
      ],
      [
        "å",
        "ª"
      ],
      [
        "ç",
        "Ĺ"
      ],
      [
        "ç",
        "ħ§"
      ],
      [
        "è",
        "ĳ"
      ],
      [
        "é",
        "Ĩ"
      ],
      [
        "äº",
        "«"
      ],
      [
        "åħ",
        "´"
      ],
      [
        "åħ",
        "¥åº"
      ],
      [
        "åı",
        "Ī"
      ],
      [
        "åı",
        "ĸ"
      ],
      [
        "åŃ",
        "ĺåľ¨"
      ],
      [
        "åĪ",
        "Ŀ"
      ],
      [
        "ä¼",
        "°"
      ],
      [
        "ä¸Ģ",
        "ç§į"
      ],
      [
        "ä¸Ģ",
        "èĪ¬"
      ],
      [
        "ä¸Ģ",
        "åĢĭ"
      ],
      [
        "ä¸į",
        "æĺ¯"
      ],
      [
        "ä¸į",
        "èĥ½"
      ],
      [
        "æī",
        "¾"
      ],
      [
        "è¯",
        "Ń"
      ],
      [
        "éĢ",
        "Ļ"
      ],
      [
        "å¤§",
        "çļĦ"
      ],
      [
        "å°",
        "Ķ"
      ],
      [
        "æĿ",
        "¡"
      ],
      [
        "æĿ",
        "¿"
      ],
      [
        "å¥",
        "¹"
      ],
      [
        "åĩ",
        "Ĩ"
      ],
      [
        "æ³",
        "¡"
      ],
      [
        "éĻ",
        "Ħ"
      ],
      [
        "ä¸Ĭ",
        "çļĦ"
      ],
      [
        "æĭ",
        "¬"
      ],
      [
        "æĭ",
        "Ľ"
      ],
      [
        "è¶",
        "ħ"
      ],
      [
        "æĽ´",
        "å¤ļ"
      ],
      [
        "æıĲ",
        "åįĩ"
      ],
      [
        "ä»İ",
        "äºĭ"
      ],
      [
        "æĥħ",
        "åĨµ"
      ],
      [
        "è°",
        "ĥ"
      ],
      [
        "æŁ",
        "ĵ"
      ],
      [
        "æİ§",
        "åĪ¶"
      ],
      [
        "è½¬",
        "åį°"
      ],
      [
        "åĪĽ",
        "æĸ°"
      ],
      [
        "æİ¨",
        "åĬ¨"
      ],
      [
        "é»",
        "ŀ"
      ],
      [
        "æ¹ĸ",
        "åįĹ"
      ],
      [
        "æ¯ķ",
        "ä¸ļ"
      ],
      [
        "æ¿",
        "Ģ"
      ],
      [
        "ä»Ģ",
        "ä¹Ī"
      ],
      [
        "å¢ŀåĢ¼",
        "ç¨İ"
      ],
      [
        "åħ¥åº",
        "ĵ"
      ],
      [
        "1",
        "9"
      ],
      [
        "2",
        "11"
      ],
      [
        "å",
        "²"
      ],
      [
        "æ",
        "ħ"
      ],
      [
        "ç",
        "ĭ"
      ],
      [
        "è",
        "±"
      ],
      [
        "è",
        "İ"
      ],
      [
        "é",
        "ī"
      ],
      [
        "é",
        "ł"
      ],
      [
        "ä»",
        "Ĭ"
      ],
      [
        "åı",
        "²"
      ],
      [
        "å®",
        "Ŀ"
      ],
      [
        "ç»",
        "¿"
      ],
      [
        "ç»",
        "ĩ"
      ],
      [
        "åĬ",
        "ŀ"
      ],
      [
        "åĲ",
        "¸"
      ],
      [
        "è®",
        "²"
      ],
      [
        "ä¸Ń",
        "å¿ĥ"
      ],
      [
        "äºº",
        "çļĦ"
      ],
      [
        "å¹",
        "²"
      ],
      [
        "æī",
        "£"
      ],
      [
        "æĹ",
        "©"
      ],
      [
        "è¯",
        "Ŀ"
      ],
      [
        "éĢ",
        "Ģ"
      ],
      [
        "å¿",
        "Ĺ"
      ],
      [
        "æł",
        "¸"
      ],
      [
        "å¾",
        "ģ"
      ],
      [
        "å±",
        "±"
      ],
      [
        "å¼",
        "ł"
      ],
      [
        "çĲĨ",
        "è®º"
      ],
      [
        "èĩ",
        "´"
      ],
      [
        "å·¥",
        "åķĨ"
      ],
      [
        "æĶ",
        "¯"
      ],
      [
        "æµ",
        "·"
      ],
      [
        "èĩª",
        "åĬ¨"
      ],
      [
        "ä½ľ",
        "ä¸º"
      ],
      [
        "æĮ",
        "ī"
      ],
      [
        "æŀ",
        "ģ"
      ],
      [
        "æŀ",
        "Ħ"
      ],
      [
        "è¿Ĳ",
        "è¡Į"
      ],
      [
        "è¿ĺ",
        "æĺ¯"
      ],
      [
        "å¾Ī",
        "å¤ļ"
      ],
      [
        "æ´»",
        "åĬ¨"
      ],
      [
        "çĽ®",
        "æłĩ"
      ],
      [
        "æİĴ",
        "æĶ¾"
      ],
      [
        "éĴ",
        "±"
      ],
      [
        "åĮħ",
        "æĭ¬"
      ],
      [
        "æĬµ",
        "æī£"
      ],
      [
        "å®ī",
        "åħ¨"
      ],
      [
        "è¯Ħ",
        "ä¼°"
      ],
      [
        "éĢĤ",
        "åºĶ"
      ],
      [
        "å§",
        "ĭ"
      ],
      [
        "ä¸ĸ",
        "çķĮ"
      ],
      [
        "æ®",
        "µ"
      ],
      [
        "åŁİ",
        "å¸Ĥ"
      ],
      [
        "éī",
        "´"
      ],
      [
        "1",
        "8"
      ],
      [
        "å",
        "¨"
      ],
      [
        "ç",
        "ı"
      ],
      [
        "è",
        "ŀ"
      ],
      [
        "Ļ",
        "é»ŀ"
      ],
      [
        "çļ",
        "®"
      ],
      [
        "çļĦ",
        "äºº"
      ],
      [
        "çļĦ",
        "é«ĺ"
      ],
      [
        "çļĦ",
        "åŃ¦çĶŁ"
      ],
      [
        "æľ",
        "Ľ"
      ],
      [
        "åħ",
        "ħ"
      ],
      [
        "åı",
        "£"
      ],
      [
        "åĪ",
        "ĩ"
      ],
      [
        "ä¼",
        "ĳ"
      ],
      [
        "æĸ",
        "½"
      ],
      [
        "ä¸ļ",
        "åĬ¡"
      ],
      [
        "æķ",
        "ħ"
      ],
      [
        "äºº",
        "æ°ĳ"
      ],
      [
        "å¸",
        "®"
      ],
      [
        "çĶŁ",
        "çī©"
      ],
      [
        "è¯",
        "·"
      ],
      [
        "éĢ",
        "Ł"
      ],
      [
        "å°",
        "½"
      ],
      [
        "äºĨ",
        "ä¸Ģ"
      ],
      [
        "èĢ",
        "Ĳ"
      ],
      [
        "åĨ",
        "ľ"
      ],
      [
        "åıĳ",
        "ç¥¨"
      ],
      [
        "çº",
        "¿"
      ],
      [
        "æĿ¥",
        "çļĦ"
      ],
      [
        "ä¼ģä¸ļ",
        "ä¿¡æģ¯åĮĸ"
      ],
      [
        "é¡",
        "»"
      ],
      [
        "æĹ¶",
        "ä»£"
      ],
      [
        "éģ",
        "ĩ"
      ],
      [
        "æŀ",
        "Ĳ"
      ],
      [
        "åħ¬",
        "ä¼Ĺ"
      ],
      [
        "ç«",
        "ŀ"
      ],
      [
        "è¶",
        "£"
      ],
      [
        "æĻ",
        "®"
      ],
      [
        "æıĲ",
        "ä¾Ľ"
      ],
      [
        "èĻ",
        "ļ"
      ],
      [
        "æľŁ",
        "éĹ´"
      ],
      [
        "çĽ¸",
        "åħ³"
      ],
      [
        "æ¨",
        "Ļé»ŀ"
      ],
      [
        "æķ´",
        "ä½ĵ"
      ],
      [
        "åĮĹ",
        "äº¬"
      ],
      [
        "è¾¾",
        "åĪ°"
      ],
      [
        "æķ°åŃĹ",
        "åĮĸ"
      ],
      [
        "æĵį",
        "ä½ľ"
      ],
      [
        "è±",
        "¡"
      ],
      [
        "èİ",
        "·"
      ],
      [
        "å",
        "¡"
      ],
      [
        "æ",
        "¼"
      ],
      [
        "æ",
        "ļ"
      ],
      [
        "ç",
        "¢"
      ],
      [
        "ç",
        "¯"
      ],
      [
        "ä¸",
        "Ķ"
      ],
      [
        "çļĦ",
        "åįļçī©é¦Ĩ"
      ],
      [
        "ãĢģ",
        "âĢľ"
      ],
      [
        "åħ",
        "ī"
      ],
      [
        "çĶ",
        "±"
      ],
      [
        "ç»",
        "¼"
      ],
      [
        "è®",
        "®"
      ],
      [
        "æľī",
        "æľº"
      ],
      [
        "æľī",
        "æķĪ"
      ],
      [
        "åĮ",
        "»"
      ],
      [
        "çī",
        "Ī"
      ],
      [
        "éĢ",
        "Ĵ"
      ],
      [
        "å¾",
        "Ģ"
      ],
      [
        "å±",
        "Ģ"
      ],
      [
        "äºĨ",
        "è§£"
      ],
      [
        "çº",
        "º"
      ],
      [
        "åĩ",
        "Ģ"
      ],
      [
        "ä¿",
        "®"
      ],
      [
        "çĽ",
        "´"
      ],
      [
        "éĻ",
        "į"
      ],
      [
        "æ²",
        "¹"
      ],
      [
        "åĪĨ",
        "æŀĲ"
      ],
      [
        "é«ĺ",
        "æł¡"
      ],
      [
        "ç§ĳ",
        "åŃ¦"
      ],
      [
        "ç§ĳ",
        "æĬĢ"
      ],
      [
        "èĮĥ",
        "åĽ´"
      ],
      [
        "ä¸ĵ",
        "çĶ¨"
      ],
      [
        "æĭ",
        "ī"
      ],
      [
        "ä¾",
        "ĭ"
      ],
      [
        "åĲĮ",
        "æĹ¶"
      ],
      [
        "å¾Ĺ",
        "åĪ°"
      ],
      [
        "æ¸",
        "ħ"
      ],
      [
        "æĽ´",
        "åĬł"
      ],
      [
        "åįļçī©é¦Ĩ",
        "çļĦ"
      ],
      [
        "æ°Ķ",
        "ä½ĵ"
      ],
      [
        "ç¬¬",
        "åĽĽ"
      ],
      [
        "éĩį",
        "è¦ģ"
      ],
      [
        "éĩį",
        "çĤ¹"
      ],
      [
        "æ¯Ķ",
        "è¾ĥ"
      ],
      [
        "å»ºè®¾",
        "çļĦ"
      ],
      [
        "åŃ¦ç§ĳ",
        "è¯Ħä¼°"
      ],
      [
        "éĹ¨",
        "ç¥¨"
      ],
      [
        "è§Ħ",
        "åĪĴ"
      ],
      [
        "è§Ĥ",
        "ä¼Ĺ"
      ],
      [
        "è·",
        "¨"
      ],
      [
        "è·",
        "¯"
      ],
      [
        "ç¼",
        "º"
      ],
      [
        "èĭ",
        "¥"
      ],
      [
        "æ¶Ī",
        "æ³¡"
      ],
      [
        "èĥ",
        "ľ"
      ],
      [
        "åĸ",
        "Ħ"
      ],
      [
        "ä»»",
        "ä½ķ"
      ],
      [
        "è®°",
        "èĢħ"
      ],
      [
        "çĸ",
        "Ĺ"
      ],
      [
        "çĶŁæĢģ",
        "æĸĩæĺİ"
      ],
      [
        "æ³¢",
        "ç½Ĺ"
      ],
      [
        "åª",
        "Ĵ"
      ],
      [
        "èĳ",
        "Ĺ"
      ],
      [
        ")",
        "ãĢĤ"
      ],
      [
        "1",
        "7"
      ],
      [
        "¶",
        "åīĤ"
      ],
      [
        "å",
        "Ĥ"
      ],
      [
        "å",
        "Ļ"
      ],
      [
        "ç",
        "Į"
      ],
      [
        "é",
        "¾"
      ],
      [
        "åħ",
        "«"
      ],
      [
        "ä»",
        "ħ"
      ],
      [
        "åı",
        "Į"
      ],
      [
        "åĪ",
        "Ļ"
      ],
      [
        "æĪ",
        "·"
      ],
      [
        "æĪ",
        "ı"
      ],
      [
        "åĲ",
        "ĥ"
      ],
      [
        "ä¹",
        "°"
      ],
      [
        "ä¹",
        "Ŀ"
      ],
      [
        "æľī",
        "çļĦ"
      ],
      [
        "åº",
        "ĵ"
      ],
      [
        "ä¸į",
        "æĸŃ"
      ],
      [
        "è¯",
        "»"
      ],
      [
        "ç¨",
        "³"
      ],
      [
        "åĨ",
        "·"
      ],
      [
        "ä¸ª",
        "A"
      ],
      [
        "éĿ",
        "©"
      ],
      [
        "åĩ",
        "ı"
      ],
      [
        "éĹ",
        "²"
      ],
      [
        "å¹´",
        "éī´"
      ],
      [
        "æ²",
        "³"
      ],
      [
        "æ²",
        "Ļ"
      ],
      [
        "è¿Ļ",
        "äºĽ"
      ],
      [
        "æķĻ",
        "å¸Ī"
      ],
      [
        "ä»ĸ",
        "çļĦ"
      ],
      [
        "æĦ",
        "¿"
      ],
      [
        "ä¹Ł",
        "æĺ¯"
      ],
      [
        "åĲĪ",
        "ä½ľ"
      ],
      [
        "ç½",
        "®"
      ],
      [
        "å¸ĪèĮĥ",
        "ç±»"
      ],
      [
        "åħ³",
        "æ³¨"
      ],
      [
        "è¿Ĳ",
        "èĲ¥"
      ],
      [
        "ä¹ĭ",
        "éĹ´"
      ],
      [
        "å¹³",
        "åı°"
      ],
      [
        "æīį",
        "èĥ½"
      ],
      [
        "è¡¨",
        "éĿ¢"
      ],
      [
        "è°",
        "ģ"
      ],
      [
        "ç¤¾ä¼ļ",
        "ä¸»ä¹ī"
      ],
      [
        "æº",
        "¶åīĤ"
      ],
      [
        "æİĴ",
        "åĲį"
      ],
      [
        "æĬķ",
        "æłĩ"
      ],
      [
        "éĴ",
        "¢"
      ],
      [
        "æĪĸ",
        "èĢħ"
      ],
      [
        "åİŁ",
        "åĽł"
      ],
      [
        "éĶĢ",
        "åĶ®"
      ],
      [
        "å®¹",
        "æĺĵ"
      ],
      [
        "æ¸¸",
        "æĪı"
      ],
      [
        "è¿Ļæł·",
        "çļĦ"
      ],
      [
        "è§ī",
        "å¾Ĺ"
      ],
      [
        "ç´ł",
        "è´¨"
      ],
      [
        "èĦ",
        "±"
      ],
      [
        "å¿ħ",
        "é¡»"
      ],
      [
        "ç¬¦",
        "èĻŁ"
      ],
      [
        "æ»",
        "¡"
      ],
      [
        "ç¾İä¸½",
        "ä¸ŃåĽ½"
      ],
      [
        "è¯Ń",
        "è¨Ģ"
      ],
      [
        "çĭ",
        "¬"
      ],
      [
        "å·¥åķĨ",
        "èģĶ"
      ],
      [
        "æĮī",
        "çħ§"
      ],
      [
        "ç«ŀ",
        "äºī"
      ],
      [
        "æ¨Ļé»ŀ",
        "ç¬¦èĻŁ"
      ],
      [
        "ç»¼",
        "åĲĪ"
      ],
      [
        "å",
        "ĭ"
      ],
      [
        "æ",
        "½"
      ],
      [
        "æ",
        "Ĳ"
      ],
      [
        "ç",
        "Ĩ"
      ],
      [
        "è",
        "ħ"
      ],
      [
        "è",
        "ı"
      ],
      [
        "è",
        "ľ"
      ],
      [
        "é",
        "Ł"
      ],
      [
        "çļĦ",
        "æĺ¯"
      ],
      [
        "ä»",
        "ª"
      ],
      [
        "åĪ",
        "¤"
      ],
      [
        "å®",
        "³"
      ],
      [
        "è¿",
        "ŀ"
      ],
      [
        "æĺ",
        "ł"
      ],
      [
        "ç»",
        "ª"
      ],
      [
        "åĬ",
        "Ł"
      ],
      [
        "åĲ",
        "«"
      ],
      [
        "ä¸Ģ",
        "å®¶"
      ],
      [
        "ä¹",
        "Ļ"
      ],
      [
        "åį",
        "ĸ"
      ],
      [
        "æľī",
        "äºĽ"
      ],
      [
        "çĶŁ",
        "çļĦ"
      ],
      [
        "æī",
        "¹"
      ],
      [
        "æĹ",
        "¢"
      ],
      [
        "å¯",
        "Į"
      ],
      [
        "ä¼ļ",
        "æľī"
      ],
      [
        "å®¶",
        "éķ¿"
      ],
      [
        "åİ",
        "ĭ"
      ],
      [
        "çº",
        "¢"
      ],
      [
        "çī©",
        "è´¨"
      ],
      [
        "çĽ",
        "Ĭ"
      ],
      [
        "éĻ",
        "Ĳ"
      ],
      [
        "æĮ",
        "¥"
      ],
      [
        "æ±",
        "¡"
      ],
      [
        "æ±",
        "ī"
      ],
      [
        "æĸ¹",
        "åĲĳ"
      ],
      [
        "æĸ¹",
        "æ¡Ī"
      ],
      [
        "éģ",
        "İ"
      ],
      [
        "çĤ",
        "º"
      ],
      [
        "ä¹Ł",
        "æ²¡æľī"
      ],
      [
        "è½",
        "»"
      ],
      [
        "éĥ¨",
        "éĹ¨"
      ],
      [
        "ä¾",
        "¿"
      ],
      [
        "éķ¿",
        "æ±Ł"
      ],
      [
        "åħ¶",
        "ä¸Ń"
      ],
      [
        "åľº",
        "æ¯ĶèµĽ"
      ],
      [
        "ç¬¬",
        "ä¸ī"
      ],
      [
        "éļ",
        "Ķ"
      ],
      [
        "çĥŃ",
        "è½¬åį°"
      ],
      [
        "éĥ½",
        "æĺ¯"
      ],
      [
        "çľģ",
        "å±ŀ"
      ],
      [
        "åıª",
        "æĺ¯"
      ],
      [
        "åıª",
        "æľī"
      ],
      [
        "ç»ĵ",
        "æŀľ"
      ],
      [
        "æĬķ",
        "èµĦ"
      ],
      [
        "ä»·",
        "åĢ¼"
      ],
      [
        "æĶ¿",
        "çŃĸ"
      ],
      [
        "èģĶ",
        "åĲĪ"
      ],
      [
        "åĨ³",
        "çŃĸ"
      ],
      [
        "è¿Ľé¡¹",
        "ç¨İé¢Ŀ"
      ],
      [
        "çĻ",
        "½"
      ],
      [
        "éĻ¢",
        "æł¡"
      ],
      [
        "çº³",
        "ç¨İ"
      ],
      [
        "æ¹ĸ",
        "åĮĹ"
      ],
      [
        "æ£Ģ",
        "æŁ¥"
      ],
      [
        "å±Ĥ",
        "æ¬¡"
      ],
      [
        "è¿ĩç¨ĭ",
        "ä¸Ń"
      ],
      [
        "è¾ĵ",
        "éĢģ"
      ],
      [
        "ç§¯",
        "æŀģ"
      ],
      [
        "å¥³",
        "åŃ©"
      ],
      [
        "åİĨ",
        "åı²"
      ],
      [
        "è½®",
        "åŃ¦ç§ĳè¯Ħä¼°"
      ],
      [
        "ä¸Ģå®ļ",
        "çļĦ"
      ],
      [
        "æ¹ĸåįĹ",
        "å¸ĪèĮĥå¤§åŃ¦"
      ],
      [
        "å¢ŀåĢ¼ç¨İ",
        "ä¸ĵçĶ¨"
      ],
      [
        "ç»¿",
        "èī²"
      ],
      [
        "åĲ¸",
        "éĻĦ"
      ],
      [
        "èĩªåĬ¨",
        "åĮĸ"
      ],
      [
        "çı",
        "Ń"
      ],
      [
        "ç¯",
        "®"
      ],
      [
        "éĻį",
        "ä½İ"
      ],
      [
        "ç¨³",
        "å®ļ"
      ],
      [
        "å¢ŀåĢ¼ç¨İä¸ĵçĶ¨",
        "åıĳç¥¨"
      ],
      [
        "1",
        "00"
      ],
      [
        "3",
        "0"
      ],
      [
        "¼",
        "åĦ¿"
      ],
      [
        "Ķ",
        "éģĵ"
      ],
      [
        "ä¸",
        "¥"
      ],
      [
        "çļĦ",
        "ä¼ģä¸ļ"
      ],
      [
        "äº",
        "ļ"
      ],
      [
        "åħ",
        "¸"
      ],
      [
        "åħ",
        "į"
      ],
      [
        "å¤",
        "ª"
      ],
      [
        "å¤",
        "į"
      ],
      [
        "çĶ",
        "³"
      ],
      [
        "ä½",
        "Ļ"
      ],
      [
        "ä¼",
        "´"
      ],
      [
        "ä¸Ģ",
        "çĶŁ"
      ],
      [
        "å¹",
        "¼åĦ¿"
      ],
      [
        "æĢ",
        "İ"
      ],
      [
        "åĴĮ",
        "è°"
      ],
      [
        "è¯",
        "ģ"
      ],
      [
        "å¾",
        "ħ"
      ],
      [
        "å¾",
        "ĭ"
      ],
      [
        "åĽ½",
        "æ°ĳ"
      ],
      [
        "æĿ",
        "ĳ"
      ],
      [
        "è§",
        "Ĩ"
      ],
      [
        "å¥",
        "ĸ"
      ],
      [
        "ä¸ª",
        "äºº"
      ],
      [
        "ä»¥",
        "åĲİ"
      ],
      [
        "è´",
        "¢"
      ],
      [
        "å·¥",
        "ä¸ļ"
      ],
      [
        "éĿ",
        "ł"
      ],
      [
        "çº",
        "¦"
      ],
      [
        "å½",
        "»"
      ],
      [
        "ä¿",
        "ĥ"
      ],
      [
        "å¤ļ",
        "çº³"
      ],
      [
        "æĪĳ",
        "å®¶"
      ],
      [
        "å¹´",
        "çļĦ"
      ],
      [
        "ä½ĵ",
        "èĤ²"
      ],
      [
        "åı¯",
        "æĺ¯"
      ],
      [
        "æ¯",
        "į"
      ],
      [
        "âĢĿ",
        "ãĢģâĢľ"
      ],
      [
        "åģ",
        "ĩ"
      ],
      [
        "è¿ĩ",
        "åİ»"
      ],
      [
        "åĵģ",
        "è´¨"
      ],
      [
        "æĹ¶",
        "éĹ´"
      ],
      [
        "æĸ¹",
        "æ³ķ"
      ],
      [
        "å»º",
        "ç«ĭ"
      ],
      [
        "ä¸ŃåĽ½",
        "çī¹èī²"
      ],
      [
        "åĪ¶",
        "èį¯"
      ],
      [
        "è®¡",
        "åĪĴ"
      ],
      [
        "æĽ",
        "¸"
      ],
      [
        "æĸĩ",
        "åŃ¦"
      ],
      [
        "å¼Ģ",
        "å±ķ"
      ],
      [
        "æľ¬",
        "ç§ĳ"
      ],
      [
        "æĪ¿",
        "åŃĲ"
      ],
      [
        "åŃ¦çĶŁ",
        "çļĦ"
      ],
      [
        "åľ°",
        "åĮº"
      ],
      [
        "å°±",
        "ä¸ļ"
      ],
      [
        "åħ¶",
        "ä»ĸ"
      ],
      [
        "æĻ",
        "¯"
      ],
      [
        "èµĦ",
        "æĸĻ"
      ],
      [
        "éĢł",
        "çº¸"
      ],
      [
        "åħ·",
        "å¤ĩ"
      ],
      [
        "åħ³",
        "ç³»"
      ],
      [
        "ç¬¬",
        "äºĮ"
      ],
      [
        "æĦı",
        "è¯Ĩ"
      ],
      [
        "æĥħ",
        "ç»ª"
      ],
      [
        "è¡¨",
        "ç¤º"
      ],
      [
        "å½ĵ",
        "ä»£"
      ],
      [
        "ä½į",
        "äºİ"
      ],
      [
        "æķĻèĤ²",
        "éĥ¨"
      ],
      [
        "æ´»",
        "æĢ§"
      ],
      [
        "æŁ",
        "Ķéģĵ"
      ],
      [
        "å°ı",
        "å¥³åŃ©"
      ],
      [
        "å¢ŀ",
        "å¼º"
      ],
      [
        "ç¤º",
        "çĿĢ"
      ],
      [
        "ç¼",
        "ĸ"
      ],
      [
        "çľĭ",
        "åĪ°"
      ],
      [
        "å·¥ç¨ĭ",
        "æĬĢæľ¯"
      ],
      [
        "å·¥ç¨ĭ",
        "å¤§åŃ¦"
      ],
      [
        "æīĵ",
        "åį°"
      ],
      [
        "æĮĩ",
        "å¯¼"
      ],
      [
        "äººæīį",
        "åŁ¹åħ»"
      ],
      [
        "æĸ¹éĿ¢",
        "çļĦ"
      ],
      [
        "åıĺ",
        "åĮĸ"
      ],
      [
        "åħļ",
        "çļĦ"
      ],
      [
        "å¿«",
        "éĢĴ"
      ],
      [
        "çĸ",
        "«"
      ],
      [
        "èī¯",
        "å¥½çļĦ"
      ],
      [
        "éĶĢ",
        "é¡¹"
      ],
      [
        "èĪ¬",
        "èĭ¥"
      ],
      [
        "éħ",
        "į"
      ],
      [
        "é¢Ĩ",
        "åŁŁ"
      ],
      [
        "éĵ",
        "Ŀ"
      ],
      [
        "ç»´",
        "æĬ¤"
      ],
      [
        "åıį",
        "æĺł"
      ],
      [
        "é¢Ħ",
        "ç¤ºçĿĢ"
      ],
      [
        "æ¸©",
        "åº¦"
      ],
      [
        "é©¬",
        "å°Ķ"
      ],
      [
        "åĦ¿",
        "åŃĲ"
      ],
      [
        "æĺ¥èĬĤ",
        "æľŁéĹ´"
      ],
      [
        "çĬ¶",
        "æĢģ"
      ],
      [
        "èª",
        "ª"
      ],
      [
        "åıĤ",
        "ä¸İ"
      ],
      [
        "è´§",
        "çī©"
      ],
      [
        "åĿļ",
        "æĮģ"
      ],
      [
        "æ¢¦",
        "è§ģ"
      ],
      [
        "çª",
        "Ĺ"
      ],
      [
        "è©",
        "©"
      ],
      [
        "æģ¶",
        "èĩŃ"
      ],
      [
        "ä¸¤ä¸ª",
        "å°ıå¥³åŃ©"
      ],
      [
        "çĹ",
        "Ľ"
      ],
      [
        "æĿ¡",
        "ä»¶"
      ],
      [
        "æł¸",
        "å¿ĥ"
      ],
      [
        "èŀ",
        "į"
      ],
      [
        "åħħ",
        "åĪĨ"
      ],
      [
        "ä¼ĳ",
        "éĹ²"
      ],
      [
        "å¸®",
        "åĬ©"
      ],
      [
        "é¾",
        "Ļ"
      ],
      [
        "æ±¡",
        "æŁĵ"
      ],
      [
        "å¹¼åĦ¿",
        "åĽŃ"
      ],
      [
        "å¤ļçº³",
        "å¤ļ"
      ],
      [
        "é©¬å°Ķ",
        "å¤ļçº³å¤ļ"
      ],
      [
        ")",
        ","
      ],
      [
        ")",
        "ãĢģ"
      ],
      [
        "3",
        "00"
      ],
      [
        "¥",
        "æľī"
      ],
      [
        "ª",
        "åĬĽ"
      ],
      [
        "é",
        "ĸ"
      ],
      [
        "ī",
        "æ°´"
      ],
      [
        "Ĵ",
        "æľī"
      ],
      [
        "ľ",
        "å¤ļ"
      ],
      [
        "çļĦ",
        "å¿µ"
      ],
      [
        "åı",
        "ĭ"
      ],
      [
        "è¿",
        "ľ"
      ],
      [
        "åĽ",
        "¾"
      ],
      [
        "ç»",
        "Ī"
      ],
      [
        "åĬ",
        "ªåĬĽ"
      ],
      [
        "åĲ",
        "§"
      ],
      [
        "ä¸Ģ",
        "æŃ¥"
      ],
      [
        "åį",
        "´"
      ],
      [
        "ä¸į",
        "å¥½"
      ],
      [
        "ä¸į",
        "è¶³"
      ],
      [
        "ä¸į",
        "ä»ħ"
      ],
      [
        "äºº",
        "ç±»"
      ],
      [
        "çī",
        "Į"
      ],
      [
        "æĢ",
        "ķ"
      ],
      [
        "è¯",
        "¾"
      ],
      [
        "æł",
        "¹"
      ],
      [
        "å¾",
        "Į"
      ],
      [
        "åĽ½",
        "éĻħ"
      ],
      [
        "è§",
        "Ī"
      ],
      [
        "çĲĨ",
        "å¿µ"
      ],
      [
        "å¯",
        "«"
      ],
      [
        "ä¸ª",
        "B"
      ],
      [
        "åıĳ",
        "èĤ²"
      ],
      [
        "è´",
        "¯"
      ],
      [
        "è´",
        "Ł"
      ],
      [
        "åĵ",
        "ª"
      ],
      [
        "å½",
        "©"
      ],
      [
        "å½",
        "¬"
      ],
      [
        "å½",
        "ķ"
      ],
      [
        "æ³",
        "īæ°´"
      ],
      [
        "çŃī",
        "æĸ¹éĿ¢"
      ],
      [
        "è¿Ľ",
        "ä¸ĢæŃ¥"
      ],
      [
        "ä½ĵ",
        "çļĦ"
      ],
      [
        "æ²",
        "Ĵæľī"
      ],
      [
        "æµ",
        "ĵ"
      ],
      [
        "åĪĨ",
        "åĮħ"
      ],
      [
        "æĬĢ",
        "èĥ½"
      ],
      [
        "åģ",
        "ı"
      ],
      [
        "æĸ¹",
        "å¼ı"
      ],
      [
        "èĤ",
        "¡"
      ],
      [
        "çĤ",
        "¼"
      ],
      [
        "çĥ",
        "¦"
      ],
      [
        "æĭ",
        "©"
      ],
      [
        "ç½",
        "ļ"
      ],
      [
        "è½",
        "¦"
      ],
      [
        "èģ",
        "ĺ"
      ],
      [
        "èģ",
        "ļ"
      ],
      [
        "éķ¿",
        "æľŁ"
      ],
      [
        "ç¡",
        "¬"
      ],
      [
        "çŁ",
        "¿"
      ],
      [
        "æĸ°",
        "æĹ¶ä»£"
      ],
      [
        "åĨħ",
        "å®¹"
      ],
      [
        "åķĨ",
        "ä¼ļ"
      ],
      [
        "åŁº",
        "æľ¬"
      ],
      [
        "è¿Ĳ",
        "åĬ¨"
      ],
      [
        "åĽ½å®¶",
        "çº§"
      ],
      [
        "åģ¥åº·",
        "æ£ĢæŁ¥"
      ],
      [
        "äºĭ",
        "ä¸ļ"
      ],
      [
        "äºĭ",
        "æĥħ"
      ],
      [
        "éĶ",
        "®"
      ],
      [
        "è§Ħ",
        "èĮĥ"
      ],
      [
        "çº§",
        "åŃ¦ç§ĳ"
      ],
      [
        "å¢ŀ",
        "éķ¿"
      ],
      [
        "è·",
        "µ"
      ],
      [
        "åĲį",
        "çļĦ"
      ],
      [
        "æľį",
        "è£ħ"
      ],
      [
        "åŀĭ",
        "æĿĲ"
      ],
      [
        "æ¶Ī",
        "éĻ¤"
      ],
      [
        "æ¶Ī",
        "è´¹"
      ],
      [
        "çĻ",
        "¾"
      ],
      [
        "äº¬",
        "ä¸ľ"
      ],
      [
        "æĸ¯",
        "çī¹"
      ],
      [
        "ä¿Ŀ",
        "æĬ¤"
      ],
      [
        "éĩĩ",
        "çĶ¨"
      ],
      [
        "éĿĴ",
        "å¥¥"
      ],
      [
        "ä¸įåĲĮ",
        "çļĦ"
      ],
      [
        "æīĭ",
        "æ®µ"
      ],
      [
        "çĶµåŃĲ",
        "æĬĢæľ¯"
      ],
      [
        "èĵ",
        "Ŀ"
      ],
      [
        "äº²",
        "åŃĲ"
      ],
      [
        "æ¨¡",
        "å¼ı"
      ],
      [
        "æ°§",
        "åĮĸ"
      ],
      [
        "çĪ¶",
        "æ¯į"
      ],
      [
        "åºĶè¯¥",
        "æĺ¯"
      ],
      [
        "å¦Ī",
        "å¦Ī"
      ],
      [
        "è¶ħ",
        "è¿ĩ"
      ],
      [
        "æĶ¯",
        "æĮģ"
      ],
      [
        "èİ·",
        "å¾Ĺ"
      ],
      [
        "çĶ±",
        "äºİ"
      ],
      [
        "åĩĢ",
        "åĮĸ"
      ],
      [
        "ç¬¬åĽĽ",
        "è½®åŃ¦ç§ĳè¯Ħä¼°"
      ],
      [
        "æ¶Īæ³¡",
        "åīĤ"
      ],
      [
        "æ³¢ç½Ĺ",
        "èľ"
      ],
      [
        "çĨ",
        "Ł"
      ],
      [
        "åĬŁ",
        "èĥ½"
      ],
      [
        "éļĶ",
        "çĥŃ"
      ],
      [
        "ç¯®",
        "çĲĥ"
      ],
      [
        "åĴĮè°",
        "Ĳ"
      ],
      [
        "ä¸ŃåĽ½çī¹èī²",
        "ç¤¾ä¼ļä¸»ä¹ī"
      ],
      [
        "éĶĢé¡¹",
        "ç¨İé¢Ŀ"
      ],
      [
        "çļĦå¿µ",
        "å¤´"
      ],
      [
        "æ³¢ç½Ĺèľ",
        "ľå¤ļ"
      ],
      [
        ",",
        "âĢľ"
      ],
      [
        "1",
        "0"
      ],
      [
        "1",
        "6"
      ],
      [
        ":",
        "âĢľ"
      ],
      [
        "£",
        "¨"
      ],
      [
        "¯",
        "å®ļ"
      ],
      [
        "±",
        "ä¹Ĳ"
      ],
      [
        "½",
        "çĦ¶"
      ],
      [
        "¾",
        "çļĦ"
      ],
      [
        "å",
        "©"
      ],
      [
        "å",
        "³"
      ],
      [
        "æ",
        "¦"
      ],
      [
        "æ",
        "ĩ"
      ],
      [
        "ç",
        "ĵ"
      ],
      [
        "ç",
        "ĺ"
      ],
      [
        "ç",
        "£¨"
      ],
      [
        "Ĥ",
        "å¿µ"
      ],
      [
        "ļ",
        "èĩ³"
      ],
      [
        "çļĦ",
        "éĹ®é¢ĺ"
      ],
      [
        "äº",
        "¿"
      ],
      [
        "ä»",
        "½"
      ],
      [
        "åı",
        "¦"
      ],
      [
        "åŃ",
        "¸"
      ],
      [
        "åĪ",
        "Ĺ"
      ],
      [
        "å®",
        "£"
      ],
      [
        "å®",
        "½"
      ],
      [
        "çĶ",
        "°"
      ],
      [
        "çĶ",
        "ļèĩ³"
      ],
      [
        "åĽ",
        "°"
      ],
      [
        "ç»",
        "©"
      ],
      [
        "åĬ",
        "³"
      ],
      [
[...]
